{"<s>":0,"<pad>":1,"</s>":2,"<unk>":3,"!":4,"\"":5,"#":6,"$":7,"%":8,"&":9,"'":10,"(":11,")":12,"*":13,"+":14,",":15,"-":16,".":17,"/":18,"0":19,"1":20,"2":21,"3":22,"4":23,"5":24,"6":25,"7":26,"8":27,"9":28,":":29,";":30,"<":31,"=":32,">":33,"?":34,"@":35,"A":36,"B":37,"C":38,"D":39,"E":40,"F":41,"G":42,"H":43,"I":44,"J":45,"K":46,"L":47,"M":48,"N":49,"O":50,"P":51,"Q":52,"R":53,"S":54,"T":55,"U":56,"V":57,"W":58,"X":59,"Y":60,"Z":61,"[":62,"\\":63,"]":64,"^":65,"_":66,"`":67,"a":68,"b":69,"c":70,"d":71,"e":72,"f":73,"g":74,"h":75,"i":76,"j":77,"k":78,"l":79,"m":80,"n":81,"o":82,"p":83,"q":84,"r":85,"s":86,"t":87,"u":88,"v":89,"w":90,"x":91,"y":92,"z":93,"{":94,"|":95,"}":96,"~":97,"¡":98,"¢":99,"£":100,"¤":101,"¥":102,"¦":103,"§":104,"¨":105,"©":106,"ª":107,"«":108,"¬":109,"®":110,"¯":111,"°":112,"±":113,"²":114,"³":115,"´":116,"µ":117,"¶":118,"·":119,"¸":120,"¹":121,"º":122,"»":123,"¼":124,"½":125,"¾":126,"¿":127,"À":128,"Á":129,"Â":130,"Ã":131,"Ä":132,"Å":133,"Æ":134,"Ç":135,"È":136,"É":137,"Ê":138,"Ë":139,"Ì":140,"Í":141,"Î":142,"Ï":143,"Ð":144,"Ñ":145,"Ò":146,"Ó":147,"Ô":148,"Õ":149,"Ö":150,"×":151,"Ø":152,"Ù":153,"Ú":154,"Û":155,"Ü":156,"Ý":157,"Þ":158,"ß":159,"à":160,"á":161,"â":162,"ã":163,"ä":164,"å":165,"æ":166,"ç":167,"è":168,"é":169,"ê":170,"ë":171,"ì":172,"í":173,"î":174,"ï":175,"ð":176,"ñ":177,"ò":178,"ó":179,"ô":180,"õ":181,"ö":182,"÷":183,"ø":184,"ù":185,"ú":186,"û":187,"ü":188,"ý":189,"þ":190,"ÿ":191,"Ā":192,"ā":193,"Ă":194,"ă":195,"Ą":196,"ą":197,"Ć":198,"ć":199,"Ĉ":200,"ĉ":201,"Ċ":202,"ċ":203,"Č":204,"č":205,"Ď":206,"ď":207,"Đ":208,"đ":209,"Ē":210,"ē":211,"Ĕ":212,"ĕ":213,"Ė":214,"ė":215,"Ę":216,"ę":217,"Ě":218,"ě":219,"Ĝ":220,"ĝ":221,"Ğ":222,"ğ":223,"Ġ":224,"ġ":225,"Ģ":226,"ģ":227,"Ĥ":228,"ĥ":229,"Ħ":230,"ħ":231,"Ĩ":232,"ĩ":233,"Ī":234,"ī":235,"Ĭ":236,"ĭ":237,"Į":238,"į":239,"İ":240,"ı":241,"Ĳ":242,"ĳ":243,"Ĵ":244,"ĵ":245,"Ķ":246,"ķ":247,"ĸ":248,"Ĺ":249,"ĺ":250,"Ļ":251,"ļ":252,"Ľ":253,"ľ":254,"Ŀ":255,"ŀ":256,"Ł":257,"ł":258,"Ń":259,"Ġt":260,"Ġa":261,"he":262,"in":263,"Ġs":264,"re":265,"Ġw":266,"Ġthe":267,"ou":268,"on":269,"ha":270,"Ġb":271,"er":272,"it":273,"ing":274,"Ġm":275,"Ġc":276,"ĠI":277,"is":278,"nd":279,"Ġf":280,"or":281,"Ġp":282,"Ġto":283,"Ġd":284,"ll":285,"es":286,"Ġo":287,"en":288,"Ġl":289,"Ġg":290,"an":291,"ed":292,"Ġy":293,"Ġand":294,"hat":295,"st":296,"Ġn":297,"Ġin":298,"at":299,"Ġyou":300,"ar":301,"Ġof":302,"om":303,"le":304,"ve":305,"Ġbe":306,"ot":307,"Ġit":308,"Ġha":309,"Ġe":310,"Ġis":311,"Ġth":312,"ic":313,"as":314,"Ġthat":315,"ow":316,"ay":317,"al":318,"et":319,"Ġon":320,"Ġre":321,"Ġh":322,"ĠT":323,"ly":324,"ut":325,"se":326,"ld":327,"Ġu":328,"id":329,"ke":330,"Ġfor":331,"ver":332,"ion":333,"Ġhe":334,"ac":335,"im":336,"'s":337,"'t":338,"am":339,"all":340,"gh":341,"Ġst":342,"ent":343,"out":344,"ĠA":345,"ro":346,"Ġan":347,"ad":348,"ĠS":349,"ith":350,"if":351,"ould":352,"oo":353,"Ġwith":354,"Ġwe":355,"Ġhave":356,"Ġdo":357,"ill":358,"ir":359,"Ġj":360,"ally":361,"Ġare":362,"ust":363,"Ġnot":364,"Ġli":365,"ĠW":366,"Ġas":367,"Ġwas":368,"Ġbut":369,"op":370,"Ġr":371,"..":372,"ec":373,"Ġwh":374,"Ġmo":375,"uc":376,"Ġthis":377,"Ġthey":378,"Ġme":379,"ĠThe":380,"ter":381,"ome":382,"Ġk":383,"her":384,"ght":385,"ce":386,"ĠH":387,"ĠB":388,"Ġse":389,"Ġso":390,"Ġmy":391,"Ġcan":392,"ĠM":393,"Ġlike":394,"Ġsh":395,"Ġor":396,"Ġne":397,"ur":398,"Ġat":399,"Ġjust":400,"Ġab":401,"ĠC":402,"Ġget":403,"ant":404,"one":405,"ri":406,"ge":407,"il":408,"pp":409,"Ġyour":410,"un":411,"ers":412,"ĠD":413,"han":414,"Ġpl":415,"king":416,"Ġif":417,"Ġwould":418,"Ġma":419,"est":420,"Ġgo":421,"hing":422,"Ġal":423,"ame":424,"nt":425,"Ġall":426,"Ġcom":427,"ĠN":428,"au":429,"ight":430,"Ġex":431,"ess":432,"Ġcon":433,"Ġwhe":434,"ab":435,"ĠP":436,"Ġsu":437,"ĠY":438,"em":439,"Ġup":440,"Ġwor":441,"Ġdon":442,"Ġfr":443,"Ġout":444,"very":445,"ra":446,"eop":447,"ĠIt":448,"ol":449,"Ġpro":450,"eople":451,"Ġ(":452,"ig":453,"Ġabout":454,"Ġsome":455,"um":456,"ul":457,"us":458,"Ġany":459,"ation":460,"Ġde":461,"Ġwhat":462,"ink":463,"ct":464,"Ġpeople":465,"ate":466,"ĠO":467,"Ġ\"":468,"âĢ":469,"art":470,"Ġle":471,"'m":472,"ĠE":473,"ast":474,"ist":475,"Ġv":476,"ive":477,"Ġfrom":478,"ack":479,"ĠF":480,"ĠG":481,"Ġpo":482,"Ġone":483,"ch":484,"qu":485,"Ġtr":486,"el":487,"Ġkn":488,"ĠL":489,"Ġthem":490,"ood":491,"ain":492,"Ġ1":493,"ven":494,"and":495,"Ġmore":496,"ause":497,"ĠR":498,"ind":499,"Ġwill":500,"Ġthere":501,"ough":502,"Ġthink":503,"Ġsp":504,"Ġbec":505,"Ġtim":506,"ks":507,"our":508,"Ġknow":509,"ort":510,"âĢĻ":511,"Ġwho":512,"Ġwhen":513,"Ġfe":514,"ard":515,"ide":516,"ie":517,"ore":518,"ect":519,"end":520,"Ġplay":521,"Ġhas":522,"ther":523,"Ġno":524,"Ġpre":525,"Ġlo":526,"...":527,"ound":528,"ity":529,"Ġbecause":530,"Ġus":531,"th":532,"Ġ2":533,"Ġwant":534,"are":535,"ss":536,"Ġint":537,"ong":538,"ere":539,"Ġhow":540,"uch":541,"Ġthan":542,"'re":543,"ear":544,"Ġtheir":545,"Ġdid":546,"Ġreally":547,"Ġtime":548,"ĠYou":549,"ous":550,"so":551,"ine":552,"act":553,"ag":554,"ies":555,"Ġhis":556,"ice":557,"Ġhad":558,"Ġthing":559,"Ġother":560,"Ġevery":561,"Ġby":562,"ure":563,"ff":564,"Ġdoes":565,"Ġar":566,"ap":567,"ble":568,"ment":569,"Ġte":570,"Ġsay":571,"ĠIf":572,"Ġhim":573,"Ġag":574,"ite":575,"Ġonly":576,"ting":577,"Ġgu":578,"ep":579,"Ġgood":580,"Ġta":581,"Ġcomp":582,"ĠJ":583,"Ġman":584,"lo":585,"ue":586,"Ġsa":587,"Ġen":588,"way":589,"Ġact":590,"Ġsee":591,"Ġcould":592,"Ġoff":593,"ry":594,"Ġthen":595,"Ġeven":596,"Ġher":597,"Ġmuch":598,"Ġloo":599,"ire":600,"Ġ*":601,"ick":602,"Ġi":603,"Ġun":604,"own":605,"age":606,"ans":607,"Ġneed":608,"ty":609,"Ġqu":610,"'ve":611,"ĠTh":612,"Ġshe":613,"Ġtoo":614,"00":615,"ip":616,"od":617,"Ġbu":618,"Ġbet":619,"Ġim":620,"omet":621,"Ġyear":622,"Ġmake":623,"Ġway":624,"ually":625,"ving":626,"Ġover":627,"Ġam":628,"Ġad":629,"Ġgame":630,"Ġbeen":631,"Ġshould":632,"Ġwere":633,"ich":634,"lf":635,"int":636,"Ġexp":637,"pt":638,"reat":639,"Ġnow":640,"ĠHe":641,"uck":642,"Ġ3":643,"ĠU":644,"ĠThat":645,"Ġbeing":646,"iz":647,"Ġ-":648,"able":649,"Ġsomet":650,"Ġgoing":651,"ass":652,"os":653,"Ġstill":654,"ud":655,"Ġgot":656,"Ġsc":657,"Ġco":658,"ace":659,"ile":660,"Ġback":661,"ck":662,"ions":663,"ose":664,"Ġpr":665,"ious":666,"Ġinto":667,"Ġwork":668,"ree":669,"thing":670,"Ġright":671,"Ġcl":672,"Ġch":673,"ĠThis":674,"ade":675,"ĠK":676,"Ġsomething":677,"Ġalso":678,"ĠWe":679,"Ġdis":680,"Ġmost":681,"ount":682,"ak":683,"ĠBut":684,"ĠThey":685,"be":686,"ĠAnd":687,"ase":688,"iv":689,"Ġdown":690,"Ġfeel":691,"ond":692,"irst":693,"fter":694,"Ġlot":695,"dit":696,"'ll":697,"'d":698,"Ġtry":699,"Ġday":700,"Ġac":701,"Ġcont":702,"Ġuse":703,"ber":704,"ason":705,"nder":706,"iff":707,"Ġvery":708,"ĠSo":709,"ĠWhat":710,"Ġwhich":711,"Ġnever":712,"Ġpart":713,"Ġhapp":714,"Ġgr":715,"Ġwhy":716,"Ġbetter":717,"Ġguy":718,"Ġcha":719,"ens":720,"ial":721,"per":722,"Ġsame":723,"Ġbl":724,"Ġdoesn":725,"Ġfirst":726,"Ġwell":727,"Ġdiff":728,"ull":729,"Ġnew":730,"Ġwhere":731,"Ġro":732,"tty":733,"Ġchan":734,"Ġtw":735,"Ġstart":736,"kes":737,"fore":738,"Ġshit":739,"other":740,"Ġafter":741,"ably":742,"Ġhere":743,"wn":744,"ĠWh":745,"erson":746,"Ġke":747,"ated":748,"ence":749,"Ġres":750,"Ġactually":751,"Ġunder":752,"ought":753,"Ġsure":754,"Ġpoint":755,"Ġthough":756,"Ġdidn":757,"ish":758,"ild":759,"Ġagain":760,"orm":761,"Ġper":762,"Ġthr":763,"Ġlit":764,"ign":765,"Ġsomeone":766,"tle":767,"Ġtake":768,"mo":769,"Ġpretty":770,"ah":771,"Ġthose":772,"vel":773,"Ġmay":774,"ool":775,"self":776,"Ġ5":777,"Ġhar":778,"Ġapp":779,"Ġjo":780,"ways":781,"ach":782,"Ġthings":783,"Ġ4":784,"read":785,"ĠSt":786,"Ġreal":787,"Ġbefore":788,"riend":789,").":790,"ife":791,"red":792,"ning":793,"ory":794,"ĠV":795,"Ġperson":796,"ance":797,"ĠAl":798,"sh":799,"Ġche":800,"bably":801,"Ġdec":802,"Ġsaid":803,"Ġfa":804,"Ġyears":805,"Ġbad":806,"Ġdef":807,"Ġimp":808,"Ġdiffere":809,"Ġser":810,"Ġlook":811,"Ġlong":812,"ult":813,"Ġseem":814,"Ġwr":815,"ĠIn":816,"ia":817,"ince":818,"igh":819,"Ġrec":820,"ord":821,"ves":822,"Ġwat":823,"ps":824,"ically":825,"Ġhel":826,"ub":827,"Ġinc":828,"Ġ:":829,"ical":830,"Ġend":831,"ress":832,"Ġaround":833,"ary":834,"Ġisn":835,"ĠThere":836,"Ġthese":837,"ple":838,"ft":839,"ever":840,"Ġmean":841,"Ġrep":842,"Ġmany":843,"Ġgreat":844,"Ġalways":845,"Ġfind":846,"og":847,"Ġour":848,"Ġbr":849,"Ġcons":850,"ĠHow":851,"Ġits":852,"xt":853,"Ġbot":854,"we":855,"Ġatt":856,"ons":857,"Ġtal":858,"ĠMy":859,"Ġteam":860,"less":861,"iss":862,"Ġpost":863,"Ġprobably":864,"Ġmat":865,"Ġhard":866,"oc":867,"urn":868,"hed":869,"oy":870,"ily":871,"Ġput":872,"Ġown":873,"Ġsupp":874,"Ġanything":875,"ĠNo":876,"Ġcall":877,"Ġwhile":878,"ved":879,"Ġtwo":880,"Ġcr":881,"Ġshow":882,"up":883,"Ġfew":884,"Ġgetting":885,"ames":886,"Ġfl":887,"ating":888,"Ġbig":889,"Ġacc":890,"Ġbel":891,"Ġreason":892,"ual":893,"ely":894,"Ġbest":895,"Ġrun":896,"Ġmade":897,"ĠNot":898,"Ġfriend":899,"gg":900,"ave":901,"Ġkind":902,"vers":903,"Ġsub":904,"Ġmon":905,"Ġop":906,"Ġcar":907,"ful":908,"Ġlove":909,"Ġbit":910,"Ġsl":911,"Ġbas":912,"les":913,"oney":914,"Ġkeep":915,"Ġass":916,"ell":917,"Ġdes":918,"ise":919,"ict":920,"Ġsm":921,"ark":922,"Ġel":923,"ible":924,"Ġdoing":925,"Ġmin":926,"blem":927,"Ġsince":928,"Ġlast":929,"Ġhelp":930,"Ġrel":931,"mer":932,"Ġread":933,"Ġthrough":934,"Ġlet":935,"Ġchar":936,"Ġfun":937,"Ġinst":938,"Ġwee":939,"ower":940,"Ġgive":941,"ĠDo":942,"Ġmight":943,"Ġthought":944,"eah":945,"Ġproblem":946,"ope":947,"Ġ$":948,"Ġmoney":949,"Ġenough":950,"ny":951,"let":952,"Ġever":953,"Ġtell":954,"get":955,"Ġlittle":956,"ors":957,"Ġhappen":958,"Ġdifferent":959,"ne":960,"Ġph":961,"Ġstr":962,"Ġgen":963,"ian":964,"Ġlife":965,"Ġsim":966,"Ġcomm":967,"hen":968,"Ġpay":969,"Ġused":970,"ense":971,"ĠIs":972,"Ġfuck":973,"here":974,"ail":975,"pe":976,"uff":977,"Ġhand":978,"Ġold":979,"Ġrem":980,"ook":981,"Ġide":982,"Ġfar":983,"ĠAs":984,"Ġsec":985,"Ġeas":986,"Ġem":987,"ump":988,"Ġwithout":989,"Ġtri":990,"ger":991,"ib":992,"az":993,"Ġmakes":994,"Ġbelie":995,"Ġkill":996,"ody":997,"Ġsha":998,"li":999,"aw":1000,"ards":1001,"Ġhigh":1002,"stand":1003,"Ġadd":1004,"ert":1005,"Ġbo":1006,"Ġent":1007,"Ġgames":1008,"Ġcare":1009,"Ġwon":1010,"Ġdr":1011,"Ġbuy":1012,"Ġeveryone":1013,"Ġset":1014,"ucking":1015,"Ġtrying":1016,"ĠJust":1017,"ither":1018,"Ġ6":1019,"ations":1020,"Ġsk":1021,"ait":1022,"Ġquest":1023,"Ġkid":1024,"ics":1025,"Ġcome":1026,"Ġhaving":1027,"Ġhat":1028,"arly":1029,"ready":1030,"Ġsy":1031,"erest":1032,"lic":1033,"ath":1034,"Ġev":1035,"cept":1036,"Ġfact":1037,"Ġleast":1038,"ents":1039,"ĠAlso":1040,"Ġob":1041,"Ġboth":1042,"ially":1043,"Ġalready":1044,"Ġmod":1045,"na":1046,"Ġelse":1047,"Ġcur":1048,"Ġanother":1049,"ather":1050,"ked":1051,"Ġtra":1052,"Ġless":1053,"Ġreg":1054,"Ġunderstand":1055,"Ġinter":1056,"Ġcle":1057,"Ġjob":1058,"Ġinf":1059,"ead":1060,"Ġ10":1061,"Ġter":1062,"Ġcount":1063,"hes":1064,"Ġ'":1065,"Ġ20":1066,"ost":1067,"ix":1068,"ates":1069,"Ġsaying":1070,"Ġins":1071,"gr":1072,"Ġiss":1073,"old":1074,"ize":1075,"Ġaw":1076,"duc":1077,"Ġunt":1078,"ĠWhy":1079,"Ġdam":1080,"Ġworld":1081,"ĠCh":1082,"Ġfin":1083,"Ġsit":1084,"ng":1085,"ten":1086,"Ġmonth":1087,"Ġpol":1088,"Ġstop":1089,"Ġaway":1090,"als":1091,"Ġfucking":1092,"day":1093,"!!":1094,"Ġwrong":1095,"nce":1096,"Ġnothing":1097,"Ġwin":1098,"Ġwom":1099,"Ġanyone":1100,"ash":1101,"iously":1102,"Ġinterest":1103,"ces":1104,"Ġinv":1105,"Ġext":1106,"Ġstuff":1107,"ters":1108,"Ġsur":1109,"pl":1110,"Ġable":1111,"Ġnext":1112,"ĠShe":1113,"Ġclo":1114,"Ġuntil":1115,"ew":1116,"Ġtop":1117,"ention":1118,"av":1119,"Ġdone":1120,"ition":1121,"oot":1122,"Ġseems":1123,"Ġsound":1124,"ier":1125,"Ġlevel":1126,"its":1127,"ism":1128,"),":1129,"Ġcou":1130,"ts":1131,"Ġspec":1132,"Ġwouldn":1133,"ee":1134,"Ġidea":1135,"ĠCan":1136,"Ġdri":1137,"ience":1138,"Ġresp":1139,"ĠThan":1140,"ĠWhen":1141,"Ġturn":1142,"ang":1143,"Ġagainst":1144,"Ġhour":1145,"tc":1146,"Ġmaking":1147,"Ġusing":1148,"Ġtimes":1149,"Ġposs":1150,"Ġref":1151,"Ġsw":1152,"Ġplace":1153,"ude":1154,"chool":1155,"ering":1156,"Ġmaybe":1157,"ont":1158,"Ġbelieve":1159,"Ġeither":1160,"Ġguys":1161,"Ġbre":1162,"ĠYeah":1163,"....":1164,"Ġeverything":1165,"Ġspe":1166,"ative":1167,"arent":1168,"ank":1169,"Ġgener":1170,"**":1171,"Ġfree":1172,"Ġfull":1173,"Ġconf":1174,"Ġcor":1175,"Ġcomplet":1176,"ility":1177,"ĠFor":1178,"onest":1179,"ake":1180,"vie":1181,"ote":1182,"Ġ/":1183,"ime":1184,"ĠTr":1185,"Ġlooking":1186,"Ġguess":1187,"man":1188,"most":1189,"Ġdefin":1190,"Ġgir":1191,"Ġeff":1192,"lease":1193,"Ġcomment":1194,"ys":1195,"Ġwhole":1196,"Ġexper":1197,"Ġonce":1198,"Ġseen":1199,"Ġplaying":1200,"Ġsecond":1201,"Ġhead":1202,"Ġ9":1203,"Ġsuch":1204,"ars":1205,"oll":1206,"Ġwait":1207,"arn":1208,"Ġetc":1209,"Ġhope":1210,"sp":1211,"ĠOr":1212,"ug":1213,"Ġdep":1214,"Ġind":1215,"ĠEdit":1216,"ird":1217,"ember":1218,"Ġgi":1219,"ced":1220,"Ġwent":1221,"Ġ8":1222,"Ġschool":1223,"stem":1224,"Ġcharac":1225,"ats":1226,"Ġaren":1227,"ouse":1228,"ific":1229,"Ġgets":1230,"Ġwasn":1231,"Ġ7":1232,"Ġty":1233,"Ġmind":1234,"Ġmiss":1235,"Ġdisc":1236,"ied":1237,"Ġred":1238,"ins":1239,"lain":1240,"ered":1241,"Ġlist":1242,"itely":1243,"Ġlive":1244,".\"":1245,"Ġchange":1246,"Ġpower":1247,"ings":1248,"ately":1249,"Ġsupport":1250,"--":1251,"Ġplayers":1252,"ular":1253,"Ġleg":1254,"Ġhome":1255,"Ġeach":1256,"Ġleft":1257,"ĠWell":1258,"Ġrest":1259,"Ġcre":1260,"ween":1261,"led":1262,"Ġfam":1263,"Ġweek":1264,"ues":1265,"umb":1266,"lt":1267,"ets":1268,"ike":1269,"der":1270,"Ġsystem":1271,"ern":1272,"ident":1273,"lect":1274,"ĠMay":1275,"Ġstand":1276,"Ġbuild":1277,"uss":1278,"Ġcra":1279,"olut":1280,"alth":1281,"Ġmet":1282,"ject":1283,"Ġperf":1284,"ph":1285,"Ġmed":1286,"dd":1287,"ech":1288,"io":1289,"eg":1290,"meric":1291,"Ġpass":1292,"Ġquestion":1293,"ĠUS":1294,"Ġhit":1295,"Ġbetween":1296,"Ġcour":1297,"ertain":1298,"ren":1299,"ater":1300,"Ġnice":1301,"Ġplan":1302,"rent":1303,"Ġopen":1304,"Ġdeal":1305,"Ġyet":1306,"inking":1307,"bo":1308,"\".":1309,"Ġadv":1310,"cess":1311,"Ġsmall":1312,"ci":1313,"ef":1314,"Ġsex":1315,"Ġchild":1316,"ching":1317,"Ġclass":1318,"Ġdays":1319,"Ġlooks":1320,"uring":1321,"Ġinstead":1322,"Ġalmost":1323,"ows":1324,"Ġfriends":1325,"Ġsuper":1326,"ĠAmeric":1327,"Ġwar":1328,"Ġexact":1329,"Ġmove":1330,"Ġhate":1331,"ner":1332,"Ġworth":1333,"Ġside":1334,"Ġmom":1335,"Ġvide":1336,"Ġdra":1337,"Ġgirl":1338,"Ġfight":1339,"Ġed":1340,"Ġhu":1341,"Ġret":1342,"Ġstory":1343,"Ġes":1344,"Ġcoll":1345,"body":1346,"Ġcontro":1347,"Ġcase":1348,"ited":1349,"orry":1350,"ream":1351,"Ġname":1352,"ĠDon":1353,"Ġago":1354,"Ġsign":1355,"Ġdro":1356,"Ġmeans":1357,"Ġtalking":1358,"Ġsing":1359,"Ġ100":1360,"Ġtrans":1361,"aid":1362,"orn":1363,"Ġfound":1364,"Ġentire":1365,"pr":1366,"Ġdefinitely":1367,"bs":1368,"amp":1369,"ots":1370,"ives":1371,"Ġstarted":1372,"Ġwanted":1373,"any":1374,"ĠAll":1375,"ities":1376,"Ġabs":1377,"ists":1378,"ms":1379,"Ġagree":1380,"Ġpick":1381,"Ġword":1382,"Ġseason":1383,"Ġhum":1384,"cy":1385,"Ġopt":1386,"ublic":1387,"ĠâĢ":1388,"Ġ:)":1389,"Ġremember":1390,"ĠOh":1391,"imes":1392,"ĠMaybe":1393,"Ġexpect":1394,"ĠUn":1395,"where":1396,"ling":1397,"Ġpop":1398,"ality":1399,"ex":1400,"Ġmyself":1401,"ecially":1402,"Ġexc":1403,"Ġplayer":1404,"ness":1405,"Ġlol":1406,"Ġopp":1407,"omm":1408,"ĠAt":1409,"Ġbus":1410,"ken":1411,"erally":1412,"Ġz":1413,"ines":1414,"med":1415,"Ġ**":1416,"ale":1417,"ĠAny":1418,"line":1419,"Ġgl":1420,"ock":1421,"Ġask":1422,"Ġcut":1423,"Ġart":1424,"Ġhours":1425,"Ġnight":1426,"Ġval":1427,"Ġsense":1428,"Ġhonest":1429,"ĠSh":1430,"Ġfine":1431,"Ġav":1432,"ĠThen":1433,"Ġminut":1434,"Ġchang":1435,"Ġdou":1436,"Ġwond":1437,"owing":1438,"unch":1439,"Ġkids":1440,"ĠYes":1441,"ane":1442,"Ġrather":1443,"olog":1444,"Ġcool":1445,"joy":1446,"Ġmem":1447,"Ġcertain":1448,"Ġcost":1449,"ract":1450,"ĠRe":1451,"Ġproduc":1452,"Ġmar":1453,"ized":1454,"Ġcap":1455,"ER":1456,"app":1457,"not":1458,"Ġwomen":1459,"Ġ>":1460,"Ġcurrent":1461,"Ġbra":1462,"Ġrequ":1463,"ward":1464,"Ġexperience":1465,"Ġissue":1466,"ying":1467,"ired":1468,"sw":1469,"Ġmonths":1470,"Ġhalf":1471,"Ġmatter":1472,"ilar":1473,"Ġyes":1474,"onna":1475,"osed":1476,"Ġcompletely":1477,"ĠThanks":1478,"Ġmid":1479,"Ġwatch":1480,"Ġcomes":1481,"Ġneeds":1482,"ross":1483,"Ġgun":1484,"air":1485,"Ġhaven":1486,"Ġtold":1487,"Ġquite":1488,"Ġtrue":1489,"Ġcame":1490,"Ġworking":1491,"ĠQ":1492,"ĠTo":1493,"Ġyourself":1494,"ures":1495,"ently":1496,"Ġlikely":1497,"aking":1498,"Ġarg":1499,"ider":1500,"Ġtalk":1501,"Ġlaw":1502,"ared":1503,"Ġopin":1504,"ĠTH":1505,"ĠOn":1506,"ional":1507,"Ġsingle":1508,"ove":1509,"Ġaut":1510,"Ġhear":1511,"ield":1512,"Ġfast":1513,"ĠX":1514,"ĠNow":1515,"Ġpos":1516,"Ġusually":1517,"Ġplayed":1518,"Ġpossible":1519,"Ġtot":1520,"mm":1521,"ange":1522,"Ġgrou":1523,"Ġbro":1524,"cial":1525,"Ġwal":1526,"ship":1527,"Ġenjoy":1528,"Ġsol":1529,"Ġheard":1530,"irect":1531,"Ġline":1532,"Ġfav":1533,"rem":1534,"ĠBe":1535,"Ġones":1536,"Ġsuc":1537,"Ġlar":1538,"Ġtook":1539,"Ġlow":1540,"ted":1541,"ob":1542,"ush":1543,"ĠSp":1544,"ised":1545,"ecause":1546,"iness":1547,"ĠSome":1548,"the":1549,"Ġfamily":1550,"Ġassum":1551,"Ġgonna":1552,"Ġamount":1553,"atch":1554,"Ġnorm":1555,"Ġfre":1556,"Ġcalled":1557,"Ġcourse":1558,"Ġblack":1559,"Ġeffect":1560,"ched":1561,"fort":1562,"Ġfair":1563,"Ġgoes":1564,"Ġpast":1565,"upid":1566,"Ġhouse":1567,"Ġthinking":1568,"ĠBl":1569,"ices":1570,"Ġsell":1571,"Ġpur":1572,"Ġstay":1573,"Ġtried":1574,"Ġlearn":1575,"Ġcouple":1576,"Ġsitu":1577,"rect":1578,"Ġclose":1579,"Ġve":1580,"Ġfood":1581,"ĠAre":1582,"Ġworks":1583,"Ġeasy":1584,"Ġlight":1585,"jor":1586,"Ġduring":1587,"Ġdamage":1588,"reen":1589,"Ġcheck":1590,"ðŁ":1591,"IT":1592,"Ġothers":1593,"??":1594,"Ġfan":1595,"Ġcommun":1596,"Ġdont":1597,"Ġcountry":1598,"Ġsays":1599,"ĠBr":1600,"ĠEvery":1601,"Ġhold":1602,"und":1603,"Ġparent":1604,"Ġok":1605,"Ġhappened":1606,"Ġmark":1607,"Ġimport":1608,"vern":1609,"Ġpres":1610,"Ġliterally":1611,"Ġstud":1612,"Ġansw":1613,"sel":1614,"Ġtaking":1615,"Ġvideo":1616,"Ġwater":1617,"Ġface":1618,"Ġexactly":1619,"co":1620,"Ġfoll":1621,"side":1622,"tern":1623,"Ġmen":1624,"ĠPeople":1625,"Ġmention":1626,"Ġabsolut":1627,"ĠOne":1628,"ample":1629,"IN":1630,"ient":1631,"Ġdem":1632,"Ġspend":1633,"ipp":1634,"ĠZ":1635,"ĠAr":1636,"land":1637,"Ġhealth":1638,"ĠPl":1639,"ster":1640,"Ġoften":1641,"mp":1642,"Ġgra":1643,"ode":1644,"Ġmust":1645,"Ġmain":1646,"Ġstupid":1647,"wh":1648,"50":1649,"Ġemp":1650,"âĢĿ":1651,"sing":1652,"Ġrid":1653,"ety":1654,"Ġloc":1655,"Ġpri":1656,"Ġsaw":1657,"ments":1658,"Ġcharacter":1659,"ensive":1660,"Ġmajor":1661,"pecially":1662,"Ġprof":1663,"oice":1664,"Ġsort":1665,"Ġaff":1666,"itch":1667,"umber":1668,"ork":1669,"Ġhuge":1670,"ret":1671,"Ġlead":1672,"Ġallow":1673,"Ġaccount":1674,"res":1675,"Ġcoming":1676,"Ġdirect":1677,"10":1678,"ĠBecause":1679,"Ġattack":1680,"Ġmus":1681,"ĠâĢľ":1682,"ĠFr":1683,"Ġbasically":1684,"Ġtest":1685,"ĠTrump":1686,"Ġstrong":1687,"inal":1688,"ĠAn":1689,"000":1690,"Ġpull":1691,"Ġ&":1692,"rib":1693,"Ġlater":1694,"Ġwhite":1695,"ĠDid":1696,"Ġamaz":1697,"Ġdet":1698,"Ġbat":1699,"Ġobv":1700,"Ġconc":1701,"esome":1702,"icul":1703,"Ġimag":1704,"Ġmess":1705,"Ġhell":1706,"rible":1707,"ones":1708,"Ġchance":1709,"Ġleave":1710,"Ġhappy":1711,"ma":1712,"Ġwhatever":1713,"Ġpot":1714,"use":1715,"ĠLike":1716,"Ġsounds":1717,"ully":1718,"gy":1719,"Ġban":1720,"Ġcard":1721,"wards":1722,"Ġmovie":1723,"Ġquick":1724,"Ġstra":1725,"Ġtech":1726,"ides":1727,"Ġgovern":1728,"Ġcop":1729,"Ġnon":1730,"Ġpar":1731,"Ġfil":1732,"Ġcontrol":1733,"rist":1734,"Ġboo":1735,"Ġtoget":1736,"Ġtogether":1737,"selves":1738,"Ġopinion":1739,"Ġ30":1740,"Ġbreak":1741,"Ġtax":1742,"Ġform":1743,"fer":1744,"itive":1745,"Ġimportant":1746,"Ġluck":1747,"Ġtoday":1748,"Ġincl":1749,"Ġey":1750,"Ġvers":1751,"ĠEven":1752,"ems":1753,"Ġpain":1754,"Ġminutes":1755,"Ġste":1756,"ants":1757,"cc":1758,"Ġprot":1759,"zy":1760,"ole":1761,"ĠPro":1762,"more":1763,"Ġcouldn":1764,"ined":1765,"Ġstate":1766,"Ġhig":1767,"Ġdist":1768,"Ġsn":1769,"velop":1770,"rew":1771,"Ġann":1772,"Ġespecially":1773,"ĠLe":1774,"Ġexample":1775,"Ġfix":1776,"Ġintern":1777,"Ġphone":1778,"Ġfig":1779,"Ġdog":1780,"Ġexplain":1781,"ĠEx":1782,"Ġsimilar":1783,"lock":1784,"Ġcreat":1785,"Ġwants":1786,"Ġequ":1787,"Ġshort":1788,"Ġskill":1789,"Ġperfect":1790,"Ġbased":1791,"ĠOP":1792,"Ġrunning":1793,"Ġbull":1794,"Ġpolit":1795,"els":1796,"Ġissues":1797,"Ġnumber":1798,"fully":1799,"ians":1800,"OT":1801,"ision":1802,"oid":1803,"uct":1804,"Ġroom":1805,"ches":1806,"elt":1807,"Ġsituation":1808,"Ġconst":1809,"Ġweird":1810,"Ġben":1811,"br":1812,"har":1813,"Ġsal":1814,"ased":1815,"Ġrac":1816,"iting":1817,"Ġmil":1818,"Ġfire":1819,"Ġcol":1820,"Ġmor":1821,"Ġlost":1822,"Ġbring":1823,"Ġbody":1824,"Ġmult":1825,"Ġap":1826,"Ġorder":1827,"Ġill":1828,"Ġfavor":1829,"Ġworse":1830,"ibly":1831,"Ġsoon":1832,"Ġstat":1833,"ien":1834,"iew":1835,"Ġcau":1836,"arch":1837,"ggest":1838,"ped":1839,"con":1840,"Ġcheap":1841,"Ġ+":1842,"Ġprice":1843,"Ġhor":1844,"Ġdi":1845,"Ġeng":1846,"Ġdevelop":1847,"ĠYour":1848,"ler":1849,"20":1850,"Ġstore":1851,"ĠDoes":1852,"ĠRed":1853,"ĠGood":1854,"Ġbecome":1855,"gle":1856,"Ġeat":1857,"ages":1858,"ried":1859,"com":1860,"Ġgroup":1861,"row":1862,"Ġpat":1863,"Ġbar":1864,"Ġthree":1865,"Ġshot":1866,"Ġparents":1867,"bt":1868,"Ġsuggest":1869,"Ġamazing":1870,"Ġevent":1871,"Ġview":1872,"Ġ201":1873,"Ġcause":1874,"ining":1875,"Ġsaf":1876,"ply":1877,"aim":1878,"ection":1879,"ball":1880,"^^":1881,"Ġwish":1882,"Ġbusiness":1883,"Ġexist":1884,"gin":1885,"Ġdifference":1886,"Ġtype":1887,"ax":1888,"Ġuni":1889,"Ġgovernment":1890,"Ġyeah":1891,"Ġpict":1892,"AT":1893,"Ġprov":1894,"Ġshoot":1895,"Ġabsolutely":1896,"Ġelect":1897,"Ġdev":1898,"augh":1899,"ru":1900,"Ġweeks":1901,"Ġdead":1902,"Ġbeh":1903,"Ġtakes":1904,"like":1905,"cle":1906,"Ġsurpr":1907,"ories":1908,"Ġlose":1909,"ational":1910,"ague":1911,"loy":1912,"Ġnec":1913,"Ġlim":1914,"Ġcorrect":1915,"Ġremo":1916,"ĠGod":1917,"Ġdue":1918,"Ġfall":1919,"Ġunless":1920,"Ġcompany":1921,"Ġinteresting":1922,"Ġself":1923,"ided":1924,"ric":1925,"used":1926,"Ġpublic":1927,"Ġhur":1928,"Ġhappens":1929,"Ġproper":1930,"Ġweap":1931,"Ġgod":1932,"ton":1933,"Ġwonder":1934,"ries":1935,"no":1936,"Ġprev":1937,"Ġawesome":1938,"Ġrepl":1939,"Ġball":1940,"to":1941,"Ġhist":1942,"Ġorig":1943,"Ġcontin":1944,"ature":1945,"Ġactual":1946,"right":1947,"Ġid":1948,"Ġarm":1949,"Ġbehind":1950,"ĠSe":1951,"Ġep":1952,"Ġfront":1953,"Ġhuman":1954,"Ġsmo":1955,"OU":1956,"iec":1957,"Ġthemselves":1958,"Ġvi":1959,"dle":1960,"Ġsometimes":1961,"Ġlarge":1962,"Ġearly":1963,"Ġnormal":1964,"oth":1965,"Ġair":1966,"Ġsimply":1967,"Ġdamn":1968,"Ġhy":1969,"ĠMost":1970,"Ġthread":1971,"gan":1972,"antly":1973,"view":1974,"Ġhot":1975,"ital":1976,"te":1977,"ĠGo":1978,"LL":1979,"Ġ50":1980,"ming":1981,"Ġmill":1982,"play":1983,"Ġwoman":1984,"Ġru":1985,"Ġcompet":1986,"Ġreddit":1987,"ument":1988,"Ġ15":1989,"Ġfigure":1990,"Ġvot":1991,"ault":1992,"verage":1993,"Ġanswer":1994,"Ġfail":1995,"Ġshouldn":1996,"Ġmarket":1997,"Ġclear":1998,"ĠIts":1999,"Ġseeing":2000,"Ġgiven":2001,"Ġhonestly":2002,"Ġrelation":2003,"Ġfore":2004,"aces":2005,"Ġplease":2006,"ring":2007,"Ġbook":2008,"ron":2009,"by":2010,"Ġgeneral":2011,"Ġsorry":2012,"Ġ.":2013,"unk":2014,"Ġfut":2015,"Ġstre":2016,"Ġscen":2017,"acy":2018,"Ġtreat":2019,"ĠIm":2020,"Ġsupposed":2021,"Ġextrem":2022,"ement":2023,"Ġsad":2024,"Ġpe":2025,"Ġarea":2026,"Ġdie":2027,"ator":2028,"Ġmag":2029,"me":2030,"Ġrele":2031,"ĠHa":2032,"ify":2033,"Ġoutside":2034,"vot":2035,"leep":2036,"Ġasked":2037,"Ġign":2038,"ik":2039,"Ġdeath":2040,"ished":2041,"ĠAm":2042,"Ġ=":2043,"Ġx":2044,"Ġtrade":2045,"cha":2046,"ĠWith":2047,"ommend":2048,"Ġpoor":2049,"Ġdesign":2050,"gram":2051,"Ġparty":2052,"Ġmass":2053,"andom":2054,"Ġanymore":2055,"gress":2056,"Ġfelt":2057,"Ġcrazy":2058,"erv":2059,"Ġworked":2060,"Ġsent":2061,"Ġanyway":2062,"Ġserv":2063,"Ġinform":2064,"Ġwear":2065,"Ġsocial":2066,"Ġhigher":2067,"ung":2068,"ips":2069,"Ġrelationship":2070,"ned":2071,"Ġrecommend":2072,"Ġboy":2073,"sc":2074,"ery":2075,"Ġknew":2076,"ior":2077,"Ġdude":2078,"Ġspeed":2079,"outh":2080,"Ġimagine":2081,"Ġlonger":2082,"ustom":2083,"Ġvis":2084,"Ġextra":2085,"Ġincre":2086,"Ġpack":2087,"mit":2088,"Ġconsider":2089,"Ġ12":2090,"ina":2091,"Ġdrive":2092,"ounds":2093,"ending":2094,"Ġasking":2095,"ama":2096,"Ġfuture":2097,"ison":2098,"Ġpoints":2099,"Ġtit":2100,"Ġclaim":2101,"oring":2102,"Ġexcept":2103,"\",":2104,"Ġliving":2105,"ape":2106,"Ġknows":2107,"Ġcommon":2108,"Ġir":2109,"Ġbought":2110,"Ġnear":2111,"sed":2112,"Ġfem":2113,"Ġkinda":2114,"ĠWould":2115,"ĠCl":2116,"Ġbab":2117,"ĠWho":2118,"ĠChrist":2119,"Ġfunny":2120,"ged":2121,"Ġgave":2122,"Ġprom":2123,"Ġcomplain":2124,"pect":2125,"Ġslow":2126,"Ġant":2127,"Ġstraight":2128,"Ġrelig":2129,"Ġbeat":2130,"Ġmis":2131,"Ġeasily":2132,"Ġdest":2133,"load":2134,"Ġwatching":2135,"RE":2136,"uro":2137,"ege":2138,"aste":2139,"Ġmusic":2140,"Ġgiving":2141,"ution":2142,"Ġappro":2143,"wise":2144,"ift":2145,"Ġproblems":2146,"Ġpiec":2147,"Ġclean":2148,"icks":2149,"ON":2150,"Ġtotally":2151,"Ġfans":2152,"Ġteams":2153,"Ġtyp":2154,"AN":2155,"ĠMan":2156,"atur":2157,"Ġalong":2158,"oud":2159,"Ġfit":2160,"Ġfoc":2161,"oint":2162,"icle":2163,"ari":2164,"Ġinterested":2165,"Ġhop":2166,"Ġpract":2167,"ging":2168,"Ġresult":2169,"for":2170,"roll":2171,"Ġ0":2172,"ĠHowever":2173,"Ġtechn":2174,"Ġsend":2175,"Ġlog":2176,"ocr":2177,"Ġmultip":2178,"ĠLet":2179,"ugg":2180,"of":2181,"ĠDe":2182,"Ġfoot":2183,"Ġinvest":2184,"yle":2185,"che":2186,"Ġrequire":2187,"Ġworst":2188,"Ġphys":2189,"ively":2190,"Ġland":2191,"Ġmoment":2192,"Ġrandom":2193,"Ġwall":2194,"Ġneeded":2195,"Ġrealize":2196,"oss":2197,"Ġ19":2198,"ĠThank":2199,"Ġprocess":2200,"Ġvs":2201,"Ġfollow":2202,"Ġpress":2203,"ral":2204,"Ġbox":2205,"Ġvote":2206,"Ġneg":2207,"Ġcomb":2208,"Ġfeeling":2209,"ĠJo":2210,"idence":2211,"Ġage":2212,"mon":2213,"ising":2214,"ĠHave":2215,"Ġupd":2216,"Ġanim":2217,"Ġcal":2218,"Ġcommunity":2219,"Ġcity":2220,"Ġpaid":2221,"Ġdrop":2222,"ĠAmerican":2223,"ĠED":2224,"set":2225,"AA":2226,"Ġcustom":2227,"ses":2228,"iny":2229,"Ġthanks":2230,"head":2231,"ĠSc":2232,"orts":2233,"Ġseries":2234,"Ġcharacters":2235,"Ġlisten":2236,"Ġhistory":2237,"aut":2238,"Ġversion":2239,"Ġcent":2240,"Ġalone":2241,"Ġmatch":2242,"Ġspace":2243,"ium":2244,"Ġproduct":2245,"Ġonline":2246,"Ġaccept":2247,"Ġton":2248,"shit":2249,"Ġweight":2250,"Ġeasier":2251,"Ġprogram":2252,"Ġjoke":2253,"Ġcas":2254,"omb":2255,"Ġcamp":2256,"Ġlooked":2257,"Ġdiscuss":2258,"Ġcult":2259,"Ġquality":2260,"Ġchildren":2261,"Ġsqu":2262,"Ġwind":2263,"ING":2264,"OO":2265,"lish":2266,"ified":2267,"Ġvalue":2268,"Ġmeet":2269,"Ġdrug":2270,"Ġbase":2271,"ata":2272,"Ġmine":2273,"ĠOb":2274,"Ġmother":2275,"Ġcrit":2276,"Ġinclud":2277,"Ġperform":2278,"Ġrespect":2279,"Ġgold":2280,"ror":2281,"ĠOk":2282,"atic":2283,"ĠðŁ":2284,"Ġcontent":2285,"ĠMar":2286,"ES":2287,"Ġgone":2288,"Ġfeels":2289,"Ġmeant":2290,"Ġlea":2291,"ta":2292,"Ġfavorite":2293,"pped":2294,"ource":2295,"Ġbunch":2296,"Ġsave":2297,"Ġwife":2298,"Ġseriously":2299,"Ġspecial":2300,"Ġran":2301,"cl":2302,"though":2303,"Ġchoice":2304,"Ġcollege":2305,"ĠNew":2306,"unt":2307,"Ġroll":2308,"Ġcomments":2309,"Ġreading":2310,"Ġcards":2311,"ĠAfter":2312,"Ġgives":2313,"Ġenem":2314,"Ġcir":2315,"Ġyoung":2316,"Ġoption":2317,"Ġavail":2318,"Ġpersonal":2319,"Ġbill":2320,"Ġimpro":2321,"Ġconn":2322,"ls":2323,"Ġpen":2324,"Ġment":2325,"Ġchoo":2326,"ules":2327,"Ġinvol":2328,"work":2329,"ĠWhich":2330,"Ġbenef":2331,"Ġpotent":2332,"Ġstar":2333,"Ġtrad":2334,"Ġrecord":2335,"amer":2336,"Ġterrible":2337,"Ġserious":2338,"ĠEng":2339,"que":2340,"Ġnecess":2341,"arth":2342,"Ġshows":2343,"ĠTHE":2344,"Ġsleep":2345,"Ġitself":2346,"Ġdecent":2347,"ky":2348,"Ġtaken":2349,"ĠWhere":2350,"Ġepis":2351,"Ġtou":2352,"Ġmiddle":2353,"?\"":2354,"Ġposition":2355,"off":2356,"Ġwithin":2357,"ero":2358,"ĠSu":2359,"Ġdoubt":2360,"ĠMe":2361,"Ġhero":2362,"Ġemploy":2363,"Ġmostly":2364,"ute":2365,"ĠNe":2366,"Ġstick":2367,"ored":2368,"ĠPC":2369,"how":2370,"arr":2371,"Ġ:(":2372,"Ġkey":2373,"Ġstep":2374,"hh":2375,"Ġris":2376,"ony":2377,"Ġcat":2378,"Ġhimself":2379,"verse":2380,"Ġdad":2381,"ilt":2382,"Ġspeak":2383,"cing":2384,"oun":2385,"Ġheav":2386,"Ġobviously":2387,"ĠSorry":2388,"iced":2389,"ED":2390,"ĠApp":2391,"par":2392,"Ġocc":2393,"ulation":2394,".)":2395,"Ġaverage":2396,"iot":2397,"lex":2398,"Ġaccess":2399,"Ġwhether":2400,"Ġdumb":2401,"att":2402,"Ġbur":2403,"Ġlate":2404,"Ġrece":2405,"ĠWas":2406,"Ġabove":2407,"anger":2408,"Ġcoun":2409,"Ġallowed":2410,"gest":2411,"sy":2412,"ese":2413,"ĠCanad":2414,"ends":2415,"Ġavailable":2416,"Ġkilled":2417,"Ġsimple":2418,"Ġforget":2419,"icult":2420,"Ġnews":2421,"empt":2422,"Ġoriginal":2423,"Ġstarting":2424,"irt":2425,"ĠSer":2426,"Ġra":2427,"Ġsuccess":2428,"ology":2429,"Ġprefer":2430,"ĠEDIT":2431,"Ġinternet":2432,"Ġterm":2433,"Ġmist":2434,"istic":2435,"Ġlower":2436,"ges":2437,"Ġlink":2438,"Ġcomput":2439,"Ġpersonally":2440,"ĠReddit":2441,"Ġ200":2442,"Ġinformation":2443,"ĠHis":2444,"Ġsong":2445,"Ġcannot":2446,"Ġbal":2447,"Ġsever":2448,"Ġ?":2449,"Ġ[":2450,"Ġswe":2451,"form":2452,"Ġla":2453,"Ġdeser":2454,"ĠFuck":2455,"Ġconv":2456,"action":2457,"Ġbi":2458,"Ġshitty":2459,"Ġmot":2460,"Ġskin":2461,"Ġfill":2462,"imate":2463,"Ġpicture":2464,"aming":2465,"Ġannoy":2466,"Ġpriv":2467,"!\"":2468,"Ġassume":2469,"aper":2470,"ĠGet":2471,"arently":2472,"ok":2473,"Ġdoll":2474,"Ġpun":2475,"oogle":2476,"Ġlack":2477,"ube":2478,"Ġer":2479,"oke":2480,"Ġheart":2481,"Ġbegin":2482,"Ġimm":2483,"Ġokay":2484,"Ġdifficult":2485,"Ġhair":2486,"Ġ~":2487,"Ġavoid":2488,"Ġwords":2489,"Ġregard":2490,"Ġcurrently":2491,"ping":2492,"Ġhands":2493,"Ġquestions":2494,"Ġmanag":2495,"ruct":2496,"iculous":2497,"Ġwalk":2498,"back":2499,"Ġpolice":2500,"aa":2501,"acking":2502,"Ġtelling":2503,"my":2504,"ĠGu":2505,"ware":2506,"Ġability":2507,"Ġjump":2508,"Ġforce":2509,"Ġthrow":2510,"Ġbuying":2511,"ended":2512,"Ġsold":2513,"Ġwilling":2514,"astic":2515,"ĠAmerica":2516,"Ġdrink":2517,"Ġdecided":2518,"Ġ40":2519,"Ġoffic":2520,"Ġenc":2521,"room":2522,"30":2523,"Ġclearly":2524,"Ġincred":2525,"Ġspecific":2526,"Ġseveral":2527,"Ġfocus":2528,"Ġlocal":2529,"ency":2530,"Ġviol":2531,"Ġchanged":2532,"Ġteac":2533,"reddit":2534,"Ġsize":2535,"Ġrecently":2536,"Ġtar":2537,"angu":2538,"IS":2539,"ĠPS":2540,"ucks":2541,"Ġexpensive":2542,"enty":2543,"Ġbecom":2544,"Ġport":2545,"?!":2546,"Ġfur":2547,"Ġscreen":2548,"Ġbaby":2549,"ays":2550,"Ġwaiting":2551,"idering":2552,"lus":2553,"ĠAd":2554,"Ġcry":2555,"Ġadvice":2556,"ĠKe":2557,"arely":2558,"cks":2559,"Ġdesc":2560,"Ġphot":2561,"ĠIS":2562,"Ġtowards":2563,"Ġrespons":2564,"fortun":2565,"ript":2566,"akes":2567,"Ġjud":2568,"ams":2569,"ĠAN":2570,"Ġreasons":2571,"Ġreturn":2572,"ze":2573,"ĠSomet":2574,"Ġspot":2575,"rest":2576,"Ġargument":2577,"Ġacross":2578,"Ġedit":2579,"oly":2580,"Ġ|":2581,"----":2582,"Ġpaying":2583,"Ġfat":2584,"Ġsoci":2585,"Ġbullshit":2586,"Ġpartic":2587,"Ġtur":2588,"Ġgain":2589,"EA":2590,"het":2591,"Ġgirls":2592,"ĠWar":2593,"Ġridiculous":2594,"apt":2595,"Ġtext":2596,"emp":2597,"orth":2598,"pro":2599,"Ġbed":2600,"Ġ18":2601,"Ġextremely":2602,"lim":2603,"Ġlegal":2604,"box":2605,"medi":2606,"Ġshop":2607,"Ġways":2608,"icking":2609,"lying":2610,"Ġturned":2611,"ĠPr":2612,"Ġmultiple":2613,"ination":2614,"ĠRuss":2615,"Ġhurt":2616,"got":2617,"Ġworry":2618,"Ġrelease":2619,"izz":2620,"Ġblood":2621,"Ġrules":2622,"go":2623,"Ġsafe":2624,"Ġmedia":2625,"Ġnet":2626,"Ġrange":2627,"what":2628,"ĠThese":2629,"Ġspent":2630,"ĠGr":2631,"ĠSure":2632,"ĠChe":2633,"eal":2634,"Ġfucked":2635,"Ġpopular":2636,"ressed":2637,"ected":2638,"Ġroad":2639,"Ġfinally":2640,"conom":2641,"Ġhowever":2642,"EE":2643,"Ġplaces":2644,"ĠRep":2645,"Ġground":2646,"ibility":2647,"Ġoffer":2648,"Ġweak":2649,"urope":2650,"ister":2651,"Ġpiss":2652,"ability":2653,"ands":2654,"Ġservice":2655,"Ġcertainly":2656,"200":2657,"idered":2658,"Ġ#":2659,"Ġprop":2660,"just":2661,"Ġstri":2662,"ox":2663,"rap":2664,"Ġleague":2665,"Ġattention":2666,"Ġdestro":2667,"ser":2668,"ĠHonest":2669,"Ġeyes":2670,"ĠHey":2671,"Ġmax":2672,"Ġload":2673,"Ġputting":2674,"Ġcompan":2675,"Ġdoct":2676,"Ġconsidered":2677,"Ġdeep":2678,"Ġdark":2679,"CK":2680,"Ġstream":2681,"ury":2682,"Ġinside":2683,"vies":2684,"Ġbott":2685,"Ġhaha":2686,"reci":2687,"book":2688,"ction":2689,"Ġdisapp":2690,"lement":2691,"Ġdoor":2692,"Ġlab":2693,"Ġsurprised":2694,"Ġtrack":2695,"bit":2696,"ĠPre":2697,"Ġbeha":2698,"Ġsuck":2699,"Ġlives":2700,"Ġdownvot":2701,"ization":2702,"Ġwrit":2703,"ĠOf":2704,"Ġear":2705,"Ġconcern":2706,"come":2707,"Ġdisag":2708,"ĠCom":2709,"Ġcomplete":2710,"Ġult":2711,"Ġchanges":2712,"Ġchoose":2713,"Ġforward":2714,"Ġengine":2715,"ledge":2716,"haps":2717,"Ġbuilding":2718,"Ġposts":2719,"Ġfund":2720,"Ġpiece":2721,"Ġslight":2722,"ender":2723,"Ġeconom":2724,"which":2725,"Ġglad":2726,"Ġknown":2727,"Ġassh":2728,"Ġdraw":2729,"Ġconvers":2730,"Ġgenerally":2731,"Ġest":2732,"Ġmajority":2733,"Ġcarry":2734,"ĠFl":2735,"cer":2736,"ades":2737,"ĠPlease":2738,"Ġ...":2739,"oles":2740,"aced":2741,"Ġsubreddit":2742,"Ġdick":2743,"Ġmillion":2744,"Ġfield":2745,"ĠWhile":2746,"Ġsetting":2747,"arily":2748,"Ġaf":2749,"OR":2750,"Ġ,":2751,"Ġimmedi":2752,"Ġround":2753,"Ġgrow":2754,"Ġda":2755,"Ġtown":2756,"Ġtrust":2757,"Ġgotten":2758,"ĠYOU":2759,"Ġlangu":2760,"de":2761,"Ġrese":2762,"llen":2763,"Ġreport":2764,"uly":2765,"ĠTw":2766,"Ġrate":2767,"Ġproject":2768,"irm":2769,"ivid":2770,"Ġitems":2771,"Ġtarget":2772,"ails":2773,"ression":2774,"amn":2775,"Ġtitle":2776,"over":2777,"hip":2778,"aff":2779,"__":2780,"eral":2781,"ĠHope":2782,"ker":2783,"Ġbrother":2784,"uth":2785,"ears":2786,"Ġdate":2787,"Ġcredit":2788,"Ġcover":2789,"Ġmissing":2790,"Ġmentioned":2791,"reed":2792,"ances":2793,"ĠOnly":2794,"Ġspell":2795,"Ġready":2796,"ĠFirst":2797,"ĠAg":2798,"izing":2799,"erence":2800,"Ġended":2801,"min":2802,"Ġfeed":2803,"nam":2804,"Ġquickly":2805,"Ġdata":2806,"key":2807,"Ġdeg":2808,"Ġbooks":2809,"Ġnumb":2810,"Ġlots":2811,"af":2812,"aster":2813,"ĠCon":2814,"ooks":2815,"Ġ16":2816,"Ġcy":2817,"gon":2818,"Ġtick":2819,"ĠQu":2820,"Ġjobs":2821,"light":2822,"Ġboss":2823,"Ġthank":2824,"Ġgay":2825,"Ġposted":2826,"Ġmach":2827,"time":2828,"ured":2829,"Ġpurp":2830,"echan":2831,"erman":2832,"Ġterms":2833,"Ġ25":2834,"The":2835,"bers":2836,"ĠHonestly":2837,"Ġmovies":2838,"Ġner":2839,"Ġlegit":2840,"Ġsomewhere":2841,"Ġcalling":2842,"do":2843,"Ġdiv":2844,"ĠWill":2845,"vant":2846,"Ġbiggest":2847,"Ġadded":2848,"Ġprofess":2849,"ai":2850,"Ġmoving":2851,"Ġflo":2852,"ĠWor":2853,"Ġanti":2854,"ST":2855,"Ġstyle":2856,"Ġarticle":2857,"Ġsucks":2858,"MO":2859,"Ġapart":2860,"ney":2861,"Ġappreci":2862,"ĠWow":2863,"Ġcompared":2864,"cking":2865,"Ġcomputer":2866,"but":2867,"Ġgrand":2868,"ration":2869,"Ġthats":2870,"Ġ90":2871,"Ġevidence":2872,"Ġsurv":2873,"Ġblock":2874,"Ġilleg":2875,"Ġthreat":2876,"Ġhasn":2877,"Ġemot":2878,"ĠThose":2879,"oph":2880,"ouble":2881,"Ġregular":2882,"Ġhelps":2883,"ĠPer":2884,"oil":2885,"Ġnotice":2886,"ĠInd":2887,"Ġrace":2888,"Ġshare":2889,"ĠCha":2890,"ĠTV":2891,"Ġcurious":2892,"Ġmix":2893,"Ġsusp":2894,"Ġcars":2895,"80":2896,"Ġbigger":2897,"Ġupgr":2898,"Ġcant":2899,"arb":2900,"PS":2901,"Ġbrain":2902,"Ġkept":2903,"Ġmap":2904,"Ġparts":2905,"ding":2906,"Ġ14":2907,"gn":2908,"Ġorgan":2909,"Ġcreate":2910,"den":2911,"Ġminim":2912,"fortunately":2913,"Ġgoal":2914,"onse":2915,"Ġvol":2916,"Ġattract":2917,"Ġbag":2918,"ĠEurope":2919,"ival":2920,"ĠFrom":2921,"Ġweren":2922,"Ġmur":2923,"eed":2924,"iod":2925,"ĠStill":2926,"Ġcompanies":2927,"Ġlock":2928,"ĠLol":2929,"Ġsick":2930,"Ġkick":2931,"ĠSw":2932,"cher":2933,"vert":2934,"Ġtank":2935,"ergy":2936,"Ġsmart":2937,"Ġtend":2938,"Ġconsidering":2939,"Ġotherwise":2940,"Ġoptions":2941,"uel":2942,"Ġ60":2943,"Ġepisode":2944,"ĠSte":2945,"ĠSha":2946,"Ġsuff":2947,"Ġmechan":2948,"Ġwrite":2949,"Ġoppos":2950,"Ġrout":2951,"Ġcontinue":2952,"Ġcross":2953,"Ġtotal":2954,"dition":2955,"Ġbeaut":2956,"apan":2957,"board":2958,"Ġeventually":2959,"Ġlaugh":2960,"Ġnobody":2961,"port":2962,"ana":2963,"Ġstandard":2964,"Ġdied":2965,"Ġfemale":2966,"Ġcast":2967,"Ġcode":2968,"aks":2969,"Ġeye":2970,"Ġ11":2971,"erm":2972,"Ġtre":2973,"Ġolder":2974,"Ġaware":2975,"anna":2976,"ĠOther":2977,"AM":2978,"Ġsil":2979,"put":2980,"Ġpolitical":2981,"Ġweapons":2982,"Ġobvious":2983,"60":2984,"Ġcand":2985,"fortable":2986,"Ġ;":2987,"pping":2988,"Ġfant":2989,"Ġpotential":2990,"Ġseconds":2991,"Ġpush":2992,"Ġdisagree":2993,"Ġhappening":2994,"ĠReally":2995,"aur":2996,"mor":2997,"Ġblue":2998,"Ġsociety":2999,"Ġfour":3000,"Ġsoft":3001,"Ġdefense":3002,"Ġweapon":3003,"Ġnumbers":3004,"Ġrad":3005,"Ġliber":3006,"Ġplenty":3007,"ĠMc":3008,"irth":3009,"Ġdouble":3010,"Ġindivid":3011,"ĠPh":3012,"Ġafford":3013,"Ġstopped":3014,"Ġrisk":3015,"Ġcontract":3016,"Ġmorning":3017,"Ġeating":3018,"ĠAct":3019,"lit":3020,"Ġident":3021,"Ġcompar":3022,"Ġsolid":3023,"Ġtour":3024,"Ġresponse":3025,"ray":3026,"Ġcontact":3027,"Ġwatched":3028,"Ġexperien":3029,"Ġcountries":3030,"Ġthird":3031,"hor":3032,"Ġloved":3033,"AR":3034,"Ġliked":3035,"rim":3036,"EN":3037,"Ġnatur":3038,"Ġhang":3039,"Ġcamer":3040,"mmer":3041,"Ġdeb":3042,"band":3043,"rel":3044,"Ġchallen":3045,"Ġheal":3046,"Ġexpl":3047,"Ġess":3048,"ĠGreat":3049,"Ġdream":3050,"ĠCould":3051,"Ġguns":3052,"Ġprogress":3053,"Ġaud":3054,"you":3055,"Ġserver":3056,"ilities":3057,"Ġpolic":3058,"Ġaction":3059,"iful":3060,"Ġpurcha":3061,"Ġscene":3062,"osp":3063,"15":3064,"ites":3065,"itary":3066,"Ġcharge":3067,"ĠSame":3068,"Ġloss":3069,"Ġpossibly":3070,"Ġmeaning":3071,"Ġinvolved":3072,"Ġobject":3073,"Ġord":3074,"lay":3075,"bl":3076,"Ġattempt":3077,"miss":3078,"Ġpus":3079,"Ġsomehow":3080,"Ġlad":3081,"Ġsat":3082,"son":3083,"Ġswitch":3084,"Ġfurther":3085,"Ġchamp":3086,"Ġracist":3087,"ipping":3088,"esus":3089,"Ġboard":3090,"Ġdom":3091,"Ġkilling":3092,"Ġdesp":3093,"Ġcounter":3094,"inc":3095,"ĠIT":3096,"Ġ--":3097,"Ġden":3098,"rom":3099,"ifically":3100,"urance":3101,"Ġgear":3102,"Ġimmediately":3103,"dy":3104,"Ġanywhere":3105,"ey":3106,"Ġthinks":3107,"ived":3108,"kend":3109,"ĠWait":3110,"Ġclub":3111,"Ġcirc":3112,"iet":3113,"Ġlaws":3114,"Ġdeck":3115,"Ġeduc":3116,"Ġenemy":3117,"Ġbud":3118,"hn":3119,"Ġshut":3120,"ext":3121,"Ġinfl":3122,"Ġfaster":3123,"Ġdanger":3124,"Ġdriving":3125,"Ġperiod":3126,"illy":3127,"Ġbrand":3128,"Ġmanage":3129,"ĠBy":3130,"ĠSO":3131,"Ġharder":3132,"ĠTry":3133,"ĠEnglish":3134,"Ġblo":3135,"Ġlosing":3136,"Ġnearly":3137,"gend":3138,"ume":3139,"Ġhoping":3140,"now":3141,"Ġconsist":3142,"Ġenergy":3143,"Ġfather":3144,"Ġknowing":3145,"Ġsepar":3146,"OW":3147,"Ġlif":3148,"Ġmale":3149,"Ġentirely":3150,"Ġmode":3151,"ĠHell":3152,"Ġpaper":3153,"Ġque":3154,"AS":3155,"!!!":3156,"Ġreduc":3157,"Ġbother":3158,"rupt":3159,"Ġnote":3160,"ĠDem":3161,"Ġminor":3162,"Ġoffice":3163,"Ġmeth":3164,"Ġfairly":3165,"ĠEveryone":3166,"Ġpan":3167,"11":3168,"rit":3169,"Ġdestroy":3170,"Ġbroken":3171,"40":3172,"Ġsitting":3173,"pri":3174,"rd":3175,"Ġtravel":3176,"Ġpage":3177,"Ġdecision":3178,"Ġcolor":3179,"Ġrock":3180,"ources":3181,"Ġdig":3182,"Ġprim":3183,"Ġinstall":3184,"ĠNOT":3185,"oooo":3186,"ossible":3187,"Ġculture":3188,"Ġang":3189,"Ġforgot":3190,"ipped":3191,"ea":3192,"Ġrights":3193,"urity":3194,"ĠSince":3195,"Ġsignific":3196,"Ġmassive":3197,"Ġadvant":3198,"Ġimprove":3199,"Ġbasic":3200,"Ġautom":3201,"Ġlay":3202,"erc":3203,"Ġannoying":3204,"Ġrule":3205,"ortun":3206,"Ġodd":3207,"Ġknowledge":3208,"Ġtruly":3209,"ux":3210,"Ġmad":3211,"Ġnegative":3212,"ĠSuper":3213,"Ġtwice":3214,"Ġson":3215,"Ġupdate":3216,"Ġhus":3217,"Ġbottom":3218,"Ġtable":3219,"iction":3220,"Ġhandle":3221,"Ġprotect":3222,"Ġreality":3223,"Ġindividual":3224,"ym":3225,"Ġcontroll":3226,"Ġfully":3227,"Ġnoticed":3228,"Ġburn":3229,"Ġdecide":3230,"Ġbuilt":3231,"eng":3232,"ĠSm":3233,"Ġadmit":3234,"Ġillegal":3235,"Ġrole":3236,"Ġmoved":3237,"Ġuses":3238,"Ġinj":3239,"Ġlanguage":3240,"Ġfell":3241,"Ġstarts":3242,"ĠUK":3243,"Ġfighting":3244,"Ġindust":3245,"tery":3246,"Ġtrain":3247,"Ġsource":3248,"Ġweekend":3249,"ĠNever":3250,"ĠProbably":3251,"Ġship":3252,"ĠRem":3253,"Ġplays":3254,"yond":3255,"Ġpers":3256,"Ġmessage":3257,"ĠPlus":3258,"Ġstates":3259,"ĠBlack":3260,"Ġpsy":3261,"ĠJapan":3262,"Ġawful":3263,"Ġbon":3264,"Ġnone":3265,"Ġphysical":3266,"Ġcash":3267,"Ġconstantly":3268,"bal":3269,"ĠOnce":3270,"Ġactiv":3271,"ĠRight":3272,"uz":3273,"Ġenv":3274,"ald":3275,"ask":3276,"raph":3277,"Ġbehav":3278,"Ġpurpose":3279,"Ġapparently":3280,"oes":3281,"ĠSeriously":3282,"Ġeffort":3283,"Ġstuck":3284,"Ġbrought":3285,"Ġplus":3286,"Ġoil":3287,"ĠHere":3288,"Ġteacher":3289,"Ġbuff":3290,"Ġsite":3291,"ĠAust":3292,"iding":3293,"awn":3294,"Ġitem":3295,"Ġbirth":3296,"ĠGerman":3297,"Ġ^^":3298,"Ġvoice":3299,"mb":3300,"gs":3301,"ĠCanada":3302,"Ġegg":3303,"Ġstrugg":3304,"Ġuseful":3305,"ivil":3306,"Ġsens":3307,"Ġlines":3308,"Ġadult":3309,"OS":3310,"ili":3311,"Ġcommit":3312,"Ġstock":3313,"Ġheavy":3314,"Ġtouch":3315,"Ġincredibly":3316,"ĠMore":3317,"Ġpositive":3318,"Ġlearned":3319,"hood":3320,"Ġhom":3321,"resent":3322,"Ġtho":3323,"OL":3324,"ipe":3325,"Ġcrap":3326,"uts":3327,"Ġsexual":3328,"Ġce":3329,"cent":3330,"Ġvideos":3331,"Ġcareer":3332,"Ġhorrible":3333,"Ġreview":3334,"*.":3335,"Ġincrease":3336,"Ġyell":3337,"Ġremain":3338,"Ġwriting":3339,"ĠGot":3340,"Ġcold":3341,"Ġoper":3342,"ises":3343,"friend":3344,"Ġskills":3345,"Ġbattle":3346,"ishing":3347,"Ġtraining":3348,"erial":3349,"bor":3350,"ĠMic":3351,"Ġund":3352,"Ġvari":3353,"Ġtrouble":3354,"Ġreligion":3355,"Ġut":3356,"Ġbank":3357,"Ġmembers":3358,"VE":3359,"Ġpractice":3360,"Ġfilm":3361,"eth":3362,"Ġslightly":3363,"Ġfault":3364,"Ġconcept":3365,"Ġconversation":3366,"Ġvict":3367,"Ġexplo":3368,"Ġthous":3369,"ĠGoogle":3370,"Ġtool":3371,"bum":3372,"Ġplat":3373,"Ġblame":3374,"Ġwanna":3375,"Ġdirectly":3376,"Ġrap":3377,"ases":3378,"fl":3379,"ev":3380,"ĠGen":3381,"order":3382,"asc":3383,"anced":3384,"por":3385,"fs":3386,"Ġprovide":3387,"Ġmodel":3388,"Ġinfo":3389,"hol":3390,"dden":3391,"Ġfinal":3392,"Ġahead":3393,"Ġpresent":3394,"vote":3395,"Ġband":3396,"ffic":3397,"Ġmilitary":3398,"Ġremind":3399,"Ġ80":3400,"Ġpred":3401,"iron":3402,"Ġ13":3403,"Ġchick":3404,"lier":3405,"Ġlear":3406,"Ġtruth":3407,"Ġwebs":3408,"terday":3409,"Ġimpossible":3410,"ii":3411,"Ġparticular":3412,"ĠðŁĺ":3413,"Ġfear":3414,"Ġfac":3415,"Ġsudden":3416,"ground":3417,"Ġseemed":3418,"Ġspecifically":3419,"Ġexcited":3420,"ĠStar":3421,"asy":3422,"ĠDef":3423,"ners":3424,"Ġaccur":3425,"Ġstories":3426,"entially":3427,"Ġgrab":3428,"oon":3429,"Ġminute":3430,"ĠCar":3431,"Ġprior":3432,"ĠInt":3433,"Ġmaint":3434,"ĠDis":3435,"Ġpret":3436,"Ġlevels":3437,"Ġanal":3438,"Ġrespond":3439,"Ġfinish":3440,"Ġrev":3441,"Ġinsurance":3442,"Ġdollars":3443,"bed":3444,"Ġkit":3445,"Ġwondering":3446,"Ġhusband":3447,"Ġleaving":3448,"lfriend":3449,"hel":3450,"Ġcatch":3451,"Ġwaste":3452,"Ġinterview":3453,"Ġscrew":3454,"Ġperformance":3455,"Ġ24":3456,"arant":3457,"ĠRepublic":3458,"using":3459,"ators":3460,"VER":3461,"Ġmissed":3462,"ĠJesus":3463,"Ġscore":3464,"ooking":3465,"Ġreleased":3466,"ĠST":3467,"ĠLook":3468,"Ġcaught":3469,"Ġkeeping":3470,"aked":3471,"70":3472,"Ġaffect":3473,"ued":3474,"Ġmob":3475,"Ġrealized":3476,"12":3477,"Ġopportun":3478,"raft":3479,"Ġbeautiful":3480,"Ġidiot":3481,"Ġasshole":3482,"Ġur":3483,"rated":3484,"Ġresearch":3485,"ĠNice":3486,"Ġadvantage":3487,"esides":3488,"olution":3489,"ĠCal":3490,"Ġdoctor":3491,"Ġincluding":3492,"Ġmaterial":3493,"iring":3494,"Ġhost":3495,"Ġble":3496,"ĠJohn":3497,"Ġclot":3498,"sec":3499,"Ġfollowing":3500,"ogn":3501,"Ġselling":3502,"Ġprevent":3503,"Ġmic":3504,"100":3505,"Ġfake":3506,"Ġprivate":3507,"Ġrare":3508,"ĠInst":3509,"Ġalbum":3510,"that":3511,"Ġideas":3512,"Ġhund":3513,"aries":3514,"Ġoverall":3515,"Ġfinding":3516,"ĠFU":3517,"ĠHaha":3518,"Ġrelated":3519,"ĠBat":3520,"Ġcosts":3521,"Ġgreen":3522,"ĠPretty":3523,"Ġregul":3524,"une":3525,"bing":3526,"Ġsubject":3527,"cell":3528,"ET":3529,"Ġhundred":3530,"ĠAM":3531,"Ġbeyond":3532,"Ġsweet":3533,"ley":3534,"aughter":3535,"Ġinsane":3536,"Ġtroll":3537,"tw":3538,"ĠAND":3539,"Ġlucky":3540,"nel":3541,"aign":3542,"Ġlearning":3543,"Ġlimit":3544,"Ġraid":3545,"Ġtheory":3546,"Ġbecame":3547,"Ġdrugs":3548,"ule":3549,"Ġten":3550,"Ġremove":3551,"cast":3552,"Ġfing":3553,"Ġsou":3554,"wor":3555,"Ġpowerful":3556,"Ġglo":3557,"ees":3558,"ĠShould":3559,"Ġappreciate":3560,"asing":3561,"Ġwearing":3562,"Ġbeer":3563,"Ġwalking":3564,"ĠEsp":3565,"Ġgrad":3566,"Ġcamera":3567,"ij":3568,"ĠDra":3569,"ĠBet":3570,"Ġneigh":3571,"Ġupset":3572,"ĠSometimes":3573,"amed":3574,"ires":3575,"Ġfrust":3576,"Ġbecomes":3577,"Ġappear":3578,"Ġrefer":3579,"Ġregardless":3580,"Ġhealthy":3581,"Ġforced":3582,"aul":3583,"raid":3584,"Ġperfectly":3585,"Ġrepe":3586,"Ġpsych":3587,"ached":3588,"Ġrent":3589,"Ġaddress":3590,"itiz":3591,"AY":3592,"Ġmeat":3593,"Ġcook":3594,"Ġbanned":3595,"oura":3596,"Ġhun":3597,"ĠTe":3598,"Ġarmor":3599,"Ġinit":3600,"ops":3601,"Ġincome":3602,"Ġholding":3603,"Ġfootball":3604,"Ġmods":3605,"Ġbarely":3606,"chie":3607,"Ġbitch":3608,"Ġzero":3609,"ĠLi":3610,"Ġwinning":3611,"Ġtomor":3612,"IL":3613,"ĠUnless":3614,"Ġaccident":3615,"ĠPerson":3616,"Ġdegree":3617,"yr":3618,"Ġruns":3619,"ĠPlay":3620,"Ġimpact":3621,"Ġexpected":3622,"Ġconfused":3623,"Ġoh":3624,"vent":3625,"ĠNothing":3626,"Ġdespite":3627,"Ġgirlfriend":3628,"tr":3629,"Ġsmell":3630,"Ġtomorrow":3631,"ĠAnyone":3632,"Ġyesterday":3633,"ĠLooks":3634,"PU":3635,"versity":3636,"inting":3637,"Ġprices":3638,"Ġvac":3639,"Ġnecessary":3640,"Ġcreated":3641,"Ġmental":3642,"Ġborn":3643,"Ġhighly":3644,"ĠDamn":3645,"Ġlived":3646,"val":3647,"Ġturns":3648,"Ġdepends":3649,"Ġkeeps":3650,"ĠEn":3651,"Ġprevious":3652,"Ġcampaign":3653,"Ġdun":3654,"Ġtaxes":3655,"Ġpure":3656,"ĠHer":3657,"ĠCo":3658,"Ġgas":3659,"urch":3660,"Ġbenefit":3661,"ids":3662,"Ġdiscussion":3663,"Ġmagic":3664,"Ġesc":3665,"reg":3666,"Ġfol":3667,"Ġcollect":3668,"Ġbroke":3669,"Ġconserv":3670,"ural":3671,"Ġpicked":3672,"Ġver":3673,"ĠObama":3674,"Ġdaily":3675,"ĠWH":3676,"ĠHill":3677,"Ġalthough":3678,"roduc":3679,"ĠSounds":3680,"Ġpregn":3681,"Ġdeli":3682,"cohol":3683,"Ġmethod":3684,"Ġbutton":3685,"Ġsolution":3686,"lee":3687,"Ġpet":3688,"Ġporn":3689,"Ġcopy":3690,"Ġcore":3691,"Ġtalent":3692,"odes":3693,"uine":3694,"Ġmouth":3695,"Ġonto":3696,"Ġspending":3697,"Ġjudge":3698,"Ġhelped":3699,"ording":3700,"Ġreb":3701,"ĠMus":3702,"Ġintell":3703,"ication":3704,"iest":3705,"atives":3706,"Ġrich":3707,"Ġlane":3708,"Ġquit":3709,"Ġrepresent":3710,"Ġenviron":3711,"Ġrecogn":3712,"Ġdraft":3713,"Ġpow":3714,"ĠEU":3715,"uit":3716,"atively":3717,"Ġremoved":3718,"urs":3719,"Ġdriver":3720,"ĠIN":3721,"Ġbelow":3722,"ĠDep":3723,"Ġsmaller":3724,"uses":3725,"Ġmachine":3726,"II":3727,"ĠKeep":3728,"Ġcheaper":3729,"Ġmarried":3730,"Ġgroups":3731,"Ġopposite":3732,"Ġstats":3733,"Ġafraid":3734,"ĠSec":3735,"Ġclasses":3736,"Ġfed":3737,"Ġwritten":3738,"ario":3739,"Ġbalance":3740,"Ġmodern":3741,"25":3742,"Ġreach":3743,"Ġride":3744,"Ġtough":3745,"ĠBas":3746,"Ġmistake":3747,"Ġpopulation":3748,"Ġtrip":3749,"Ġshowing":3750,"Ġnames":3751,"ĠVery":3752,"Ġdoc":3753,"Ġsummer":3754,"Ġreasonable":3755,"Ġlimited":3756,"Ġunderstanding":3757,"Ġevil":3758,"Ġshooting":3759,"ĠEspecially":3760,"Ġtaste":3761,"OM":3762,"Ġstreet":3763,"~~":3764,"Ġwanting":3765,"Ġtrash":3766,"Ġcases":3767,"Ġresults":3768,"Ġevents":3769,"Ġcontext":3770,"31":3771,"ĠId":3772,"itude":3773,"well":3774,"OP":3775,"Ġselect":3776,"ĠBig":3777,"Ġforever":3778,"Ġoppon":3779,"ĠAmericans":3780,"pper":3781,"ino":3782,"arc":3783,"ĠWal":3784,"ups":3785,"Ġfeet":3786,"ĠDr":3787,"Ġ17":3788,"face":3789,"aged":3790,"sole":3791,"Ġargue":3792,"Ġsun":3793,"Ġguarant":3794,"Ġsales":3795,"Ġuser":3796,"Ġboring":3797,"Ġdangerous":3798,"Ġassuming":3799,"Ġgaming":3800,"Ġple":3801,"Ġsister":3802,"Ġdeserve":3803,"Ġconnect":3804,"Ġfive":3805,"Ġrequired":3806,"ĠCol":3807,"Ġcourt":3808,"Ġrecent":3809,"Ġsplit":3810,"ĠOver":3811,"Ġworried":3812,"Ġreligious":3813,"Ġfunction":3814,"ĠActually":3815,"Ġcivil":3816,"Ġlikes":3817,"Ġusers":3818,"Ġsecurity":3819,"ĠSim":3820,"Ġupon":3821,"Ġprep":3822,"Ġ;)":3823,"Ġbike":3824,"99":3825,"ĠChina":3826,"Ġnatural":3827,"Ġbeginning":3828,"Ġveh":3829,"'.":3830,"arian":3831,"Ġflat":3832,"Ġignore":3833,".....":3834,"Ġlat":3835,"ĠHA":3836,"Ġstudent":3837,"down":3838,"Ġeverywhere":3839,"Ġpictures":3840,"Ġgrind":3841,"Ġclick":3842,"Ġareas":3843,"Ġconsum":3844,"ĠSee":3845,"ĠHar":3846,"Ġachie":3847,"Ġspread":3848,"Ġdoesnt":3849,"ionally":3850,"ĠHal":3851,"Ġcoff":3852,"Ġgotta":3853,"Ġminimum":3854,"Ġsmoke":3855,"itor":3856,"Ġposting":3857,"Ġglass":3858,"Ġthoughts":3859,"Ġwins":3860,"Ġpresident":3861,"Ġwild":3862,"Ġproperly":3863,"Ġstudents":3864,"Ġlie":3865,"ables":3866,"Ġaltern":3867,"Ġindustry":3868,"Ġperspect":3869,"aker":3870,"Ġchanging":3871,"Ġdownload":3872,"Ġbudget":3873,",\"":3874,"Ġchat":3875,"ID":3876,"ĠFin":3877,"ĠDude":3878,"enn":3879,"idge":3880,"ka":3881,"ĠRussia":3882,"HA":3883,"atures":3884,"Ġfloor":3885,"Ġice":3886,"Ġperhaps":3887,"Ġaim":3888,"Ġreact":3889,"ĠAb":3890,"Ġcombat":3891,"aging":3892,"ament":3893,"Ġoccas":3894,"rand":3895,"Ġpressure":3896,"Ġemail":3897,"Ġtier":3898,"Ġdidnt":3899,"Ġfinished":3900,"roid":3901,"oms":3902,"Ġfarm":3903,"riage":3904,"gers":3905,"Ġjoin":3906,"Ġactions":3907,"Ġdin":3908,"Ġapply":3909,"Ġdogs":3910,"ĠSomeone":3911,"Ġeffects":3912,"uing":3913,"Ġdropped":3914,"Ġ&#":3915,"Ġsem":3916,"sters":3917,"Ġqual":3918,"Ġearth":3919,"Ġunf":3920,"ĠApple":3921,"uke":3922,"Ġauthor":3923,"yn":3924,"Ġrough":3925,"ĠSeems":3926,"night":3927,"Ġrob":3928,"Ġflag":3929,"Ġscience":3930,"Ġfixed":3931,"ĠGl":3932,"ains":3933,"Ġcapital":3934,"Ġalive":3935,"Ġemb":3936,"Ġsecret":3937,"Ġunc":3938,"Ġenvironment":3939,"imately":3940,"ott":3941,"?)":3942,"Ġimo":3943,"ills":3944,"Ġmount":3945,"ĠON":3946,"Ġearlier":3947,"Ã©":3948,"Ġcreep":3949,"lied":3950,"ĠLast":3951,"Ġreplace":3952,"Ġsteal":3953,"ences":3954,"Ġstrate":3955,"Ġscr":3956,"Ġsand":3957,"anc":3958,"ĠAh":3959,"Ġcomfortable":3960,"ification":3961,"Ġalcohol":3962,"Ġmedical":3963,"!!!!":3964,"ceed":3965,"Ġproof":3966,"Ġuniverse":3967,"Ġcritic":3968,"anks":3969,"ĠIMO":3970,"mas":3971,"rs":3972,"ĠMin":3973,"Ġwebsite":3974,"Ġpath":3975,"ĠAD":3976,"ĠAss":3977,"Ġbath":3978,"icles":3979,"ĠOur":3980,"Ġcandid":3981,"ĠBoth":3982,"ĠiP":3983,"ĠBrit":3984,"Ġtired":3985,"aught":3986,"Ġprofit":3987,"Ġnature":3988,"Ġconfirm":3989,"Ġweed":3990,"Ġgenuine":3991,"Ġdry":3992,"Ġcitiz":3993,"Ġangry":3994,"Ġswit":3995,"Ġcrime":3996,"Ġactive":3997,"Ġdefend":3998,"ening":3999,"Ġends":4000,"itions":4001,"ĠAustral":4002,"Ġfly":4003,"mg":4004,"ĠBest":4005,"isions":4006,"hest":4007,"Ġtrick":4008,"Ġstreng":4009,"Ġcond":4010,"Ġsaving":4011,"asure":4012,"ĠOkay":4013,"Ġjer":4014,"Ġblow":4015,"Ġtow":4016,"alse":4017,"ĠAw":4018,"ened":4019,"ĠBeing":4020,"Ġhumans":4021,"Ġconsole":4022,"Ġwhenever":4023,"Ġbattery":4024,"Ġperspective":4025,"Ġrot":4026,"Ġstatement":4027,"Ġhearing":4028,"iday":4029,"Ġimage":4030,"IC":4031,"LC":4032,"Ġreply":4033,"Ġuseless":4034,"ĠMon":4035,"Ġessentially":4036,"ĠMake":4037,"Ġtypes":4038,"Ġhosp":4039,"ĠWind":4040,"ĠTO":4041,"Ġheat":4042,"anted":4043,"Ġsearch":4044,"anch":4045,"Ġsolo":4046,"Ġupgrade":4047,"oices":4048,"itter":4049,"Ġcops":4050,"Ġacting":4051,"Ġpolicy":4052,"Ġwindow":4053,"ĠTheir":4054,"ĠFe":4055,"Ġbow":4056,"ĠRo":4057,"Ġdownvoted":4058,"Ġbehavior":4059,"ota":4060,"Ġdisappoint":4061,"rench":4062,"Ġcompetitive":4063,"Ġbudd":4064,"Ġpark":4065,"ris":4066,"Ġearn":4067,"Ġvar":4068,"ading":4069,"Ġlegend":4070,"ounce":4071,"Ġpair":4072,"UT":4073,"ĠDark":4074,"Ġdemand":4075,"ifying":4076,"Ġcrow":4077,"Ġkills":4078,"Ġsports":4079,"Ġdevelopment":4080,"Ġele":4081,"ĠLove":4082,"Ġring":4083,"Ġsomebody":4084,"met":4085,"ĠCong":4086,"Ġhits":4087,"\"?":4088,"zen":4089,"rees":4090,"inese":4091,"Ġunlike":4092,"ords":4093,"can":4094,"icularly":4095,"Ġanimals":4096,"under":4097,"Ġlaz":4098,"Ġ~~":4099,"real":4100,"DR":4101,"Ġlogic":4102,"Ġfresh":4103,"Ġcoffee":4104,"ĠChar":4105,"Ġpolitics":4106,"Ġlarger":4107,"gen":4108,"Ġvalid":4109,"ĠDemocr":4110,"ĠCur":4111,"AC":4112,"Ġnecessarily":4113,"ĠFUCK":4114,"Ġshield":4115,"uu":4116,"Ġshowed":4117,"Ġtem":4118,"hange":4119,"Ġdrunk":4120,"gar":4121,"Ġ70":4122,"Ġending":4123,"Ġpulled":4124,"ĠChristian":4125,"agn":4126,"iles":4127,"Ġprove":4128,"Ġamong":4129,"iving":4130,"ĠKing":4131,"Ġfrequ":4132,"rict":4133,"Ġtrail":4134,"osh":4135,"Ġvia":4136,"Ġdepending":4137,"Ġseparate":4138,"Ġscream":4139,"Ġgym":4140,"ĠWorld":4141,"Ġdrinking":4142,"ĠTake":4143,"Ġcart":4144,"pet":4145,"Ġmovement":4146,"Ġmer":4147,"iven":4148,"Ġshame":4149,"Ġlic":4150,"ales":4151,"ga":4152,"Ġdaughter":4153,"nces":4154,"ĠFace":4155,"ribe":4156,"ĠHoly":4157,"Ġmaster":4158,"initely":4159,"ĠAmaz":4160,"oe":4161,"Ġharm":4162,"aching":4163,"atically":4164,"bh":4165,"Ġcalls":4166,"Ġrestaur":4167,"ds":4168,"Ġcell":4169,"iment":4170,"Ġfigured":4171,"rop":4172,"lies":4173,"Ġeffective":4174,"Ġplanning":4175,"ograph":4176,"Ġrape":4177,"Ġreaction":4178,"Ġcontrib":4179,"ppy":4180,"ĠSS":4181,"tf":4182,"ĠOK":4183,"Ġinclude":4184,"Ġnor":4185,"rate":4186,"ĠEither":4187,"ĠHopefully":4188,"Ġaspect":4189,"Ġgender":4190,"acks":4191,"ĠKore":4192,"ĠTy":4193,"Ġeducation":4194,"Ġrequest":4195,"arm":4196,"Ġtalked":4197,"Ġprem":4198,"Ġya":4199,"Ġnational":4200,"Ġsomewhat":4201,"Ġfeelings":4202,"Ġpercent":4203,"Ġbreat":4204,"Ġadding":4205,"Ġ:/":4206,"Ġcrim":4207,"Ġignor":4208,"Ġfolks":4209,"ension":4210,"AL":4211,"Ġproducts":4212,"Ġtip":4213,"Ġmoves":4214,"FL":4215,"Ġdirection":4216,"Ġattacks":4217,"Ġpissed":4218,"kin":4219,"iers":4220,"Ġboost":4221,"oh":4222,"Ġvictim":4223,"Ġyours":4224,"ĠCons":4225,"Ġdemocr":4226,"tion":4227,"Ġinflu":4228,"Ġscared":4229,"ĠNet":4230,"Ġlets":4231,"Ġstrange":4232,"spect":4233,"Ġsale":4234,"Ġplot":4235,"ĠBro":4236,"Ġexcuse":4237,"ession":4238,"ĠSy":4239,"ĠBasically":4240,"Ġsuppose":4241,"Ġfile":4242,"Ġ^":4243,"ĠAT":4244,"Ġprofessional":4245,"Ġsnow":4246,"arbage":4247,"viously":4248,"Ġblind":4249,"Ġexclus":4250,"Ġsuddenly":4251,"Ġnerf":4252,"Ġsilly":4253,"ĠDoesn":4254,"Ġtag":4255,"uh":4256,"uy":4257,"field":4258,"lam":4259,"Ġfeature":4260,"Ġtemp":4261,"iver":4262,"Ġsched":4263,"Ġshots":4264,"Ġtraffic":4265,"Ġcloser":4266,"Ġspeaking":4267,"Ġgraph":4268,"ĠBar":4269,"Ġdelet":4270,"Ġwrote":4271,"Ġped":4272,"Ġtill":4273,"Ġcorpor":4274,"Ġsides":4275,"Ġplanet":4276,"Ġunique":4277,"Ġwel":4278,"ĠIsn":4279,"Ġboyfriend":4280,"ĠEl":4281,"ĠPersonally":4282,"Ġstrength":4283,"illa":4284,"rant":4285,"hy":4286,"aly":4287,"Ġopportunity":4288,"ĠExcept":4289,"arter":4290,"ĠAdd":4291,"ĠNorth":4292,"Ġresources":4293,"Ġmarriage":4294,"Ġelection":4295,"Ġbreaking":4296,"Ġwood":4297,"Ġstage":4298,"Ġbackground":4299,"Ġwont":4300,"Ġknock":4301,"amb":4302,"Ġsoftware":4303,"Ġstanding":4304,"usion":4305,"Ġopinions":4306,"Ġhyp":4307,"ann":4308,"BA":4309,"uce":4310,"Ġuns":4311,"Ġhous":4312,"ica":4313,"Ġdisg":4314,"Ġticket":4315,"Ġtells":4316,"aps":4317,"Ġtiny":4318,"ients":4319,"Ġoffense":4320,"Ġpub":4321,"Ġmemory":4322,"Ġsafety":4323,"Ġrequires":4324,"ĠGT":4325,"dow":4326,"Ġgameplay":4327,"amm":4328,"Ġnormally":4329,"omen":4330,"Ġpool":4331,"Ġtrigg":4332,"hetic":4333,"ĠLit":4334,"vere":4335,"Ġproperty":4336,"ios":4337,"cious":4338,"ĠGe":4339,"Ġrelevant":4340,"LY":4341,"ĠWW":4342,"Ġtwe":4343,"Ġbomb":4344,"Ġscale":4345,"Ġmiles":4346,"Ġpatch":4347,"Ġvoted":4348,"Ġsumm":4349,"ĠAC":4350,"Ġfreed":4351,"oop":4352,"Ġcares":4353,"Ġplatform":4354,"Ġdying":4355,"Ġvisit":4356,"Ġwide":4357,"Ġstress":4358,"ĠDO":4359,"Ġofficial":4360,"Ġmanager":4361,"Ġtopic":4362,"Ġpassed":4363,"Ġabuse":4364,"Ġwast":4365,"ĠCle":4366,"Ġplayoff":4367,"ĠCr":4368,"ĠUnfortunately":4369,"Ġthousands":4370,"ĠCor":4371,"ĠAlthough":4372,"men":4373,"Ġhopefully":4374,"Ġanx":4375,"Ġeffic":4376,"Ġded":4377,"Ġpoke":4378,"Ġencoura":4379,"Ġfantastic":4380,"boy":4381,"xic":4382,"gun":4383,"ĠYep":4384,"nger":4385,"care":4386,"Ġdevice":4387,"Ġcomplex":4388,"Ġprison":4389,"pir":4390,"Ġparticularly":4391,"Ġvoting":4392,"Ġcenter":4393,"Ġaside":4394,"Ġtons":4395,"mao":4396,"uments":4397,"iant":4398,"Ġcompare":4399,"Ġstaff":4400,"Ġgarbage":4401,"Ġorigin":4402,"Ġequal":4403,"Ġframe":4404,"rey":4405,"ĠAS":4406,"Ġclar":4407,"ĠAf":4408,"aud":4409,"Ġloud":4410,"host":4411,"estern":4412,"Ġenemies":4413,"Ġheld":4414,"sequ":4415,"Ġsix":4416,"Ġslowly":4417,"Ġintellig":4418,"isf":4419,"ĠHi":4420,"izza":4421,"ĠMany":4422,"Ġobs":4423,"ĠHaving":4424,"US":4425,"arded":4426,"Ġcircle":4427,"Ġabsolute":4428,"ĠSouth":4429,"Ġdomin":4430,"Ġmaintain":4431,"ĠBern":4432,"Ġowner":4433,"ĠDidn":4434,"Ġconcerned":4435,"Ġ<":4436,"Ġfalse":4437,"Ġcow":4438,"Ġchest":4439,"Ġtransfer":4440,"Ġbreed":4441,"Ġspoil":4442,"lin":4443,"Ġfemin":4444,"Ġunits":4445,"usting":4446,"Ġbutt":4447,"Ġhelping":4448,"Ġdrivers":4449,"Ġsuccessful":4450,"ĠPM":4451,"Ġchicken":4452,"Ġlazy":4453,"Ġschools":4454,"ĠHillary":4455,"Ġgri":4456,"ĠPart":4457,"Ġthrowing":4458,"Ġchurch":4459,"Ġsubs":4460,"Ġcapt":4461,"Ġletting":4462,"Ġmurder":4463,"Ġservers":4464,"Ġintroduc":4465,"ĠTex":4466,"Ġhilar":4467,"Ġcustomer":4468,"Ġunit":4469,"Ġaccurate":4470,"cul":4471,"Ġcircum":4472,"Ġinn":4473,"ĠAnother":4474,"Ġfailed":4475,"Ġbenefits":4476,"Ġhole":4477,"Ġfish":4478,"Ġteen":4479,"isc":4480,"Ġauto":4481,"soci":4482,"ĠOut":4483,"Ġeverybody":4484,"Ġcaused":4485,"Ġdetails":4486,"Ġmetal":4487,"Ġbecoming":4488,"Ġalt":4489,"Ġcancer":4490,"irty":4491,"Ġisnt":4492,"Ġjack":4493,"Ġexec":4494,"Ġhospital":4495,"agine":4496,"Ġvan":4497,"Ġtonight":4498,"Ġcomplaining":4499,"ĠNope":4500,"Ġanyways":4501,"Ġspeech":4502,"Ġsystems":4503,"Ġapolog":4504,"ĠWhite":4505,"ĠWest":4506,"Ġmatches":4507,"Ġgrowing":4508,"rating":4509,"pre":4510,"fuck":4511,"game":4512,"ĠNah":4513,"point":4514,"da":4515,"Ġsuit":4516,"aches":4517,"Ġdistance":4518,"Ġdress":4519,"ressive":4520,"epend":4521,"Ġallows":4522,"Ġdesigned":4523,"Ġreference":4524,"ĠNE":4525,"ĠAgain":4526,"ĠReg":4527,"Ġpieces":4528,"Ġathe":4529,"Ġfeatures":4530,"Ġhook":4531,"Ġjail":4532,"Ġclothes":4533,"Ġpartner":4534,"Ġmanaged":4535,"Ġlau":4536,"cel":4537,"Ġreward":4538,"ius":4539,"Ġeconomy":4540,"IG":4541,"ief":4542,"ription":4543,"acing":4544,"Ġcute":4545,"ran":4546,"ĠSky":4547,"Ġshock":4548,"kward":4549,"Ġterror":4550,"Ġtro":4551,"Ġpeace":4552,"ĠFacebook":4553,"Ġnation":4554,"Ġcorrectly":4555,"Ġadjust":4556,"Ġdeterm":4557,"Ġviolence":4558,"Ġyounger":4559,"ĠMac":4560,"AAAA":4561,"ĠPres":4562,"You":4563,"oman":4564,"hand":4565,"Ġchecked":4566,"Ġflash":4567,"Ġowners":4568,"exic":4569,"Ġsituations":4570,"ĠPut":4571,"Ġgrew":4572,"???":4573,"Ġsubst":4574,"Ġforeign":4575,"ĠNY":4576,"udes":4577,"ĠPol":4578,"Ġlady":4579,"iling":4580,"Ġguard":4581,"Ġ500":4582,"force":4583,"Ġmember":4584,"reens":4585,"ĠSand":4586,"Ġpurchase":4587,"Ġhitting":4588,"Ġturning":4589,"ĠHard":4590,"Ġcrowd":4591,"haha":4592,"ager":4593,"Ġanimal":4594,"Ġexpecting":4595,"orter":4596,"Ġfriendly":4597,"Ġresponsible":4598,"alk":4599,"ĠAP":4600,"Ġaggress":4601,"IR":4602,"Ġapplic":4603,"Ġmatters":4604,"ously":4605,"Ġcondition":4606,"ĠChinese":4607,"Ġballs":4608,"uild":4609,"Ġdetail":4610,"ĠUs":4611,"Ġconvin":4612,"90":4613,"bre":4614,"ĠImagine":4615,"Ġnic":4616,"Ġsignificant":4617,"Ġnetwork":4618,"Ġmath":4619,"outs":4620,"Ġintention":4621,"Ġbonus":4622,"Ġspir":4623,"Ġcasual":4624,"ĠThink":4625,"Ġmir":4626,"Ġtherap":4627,"stood":4628,"Ġproduction":4629,"ov":4630,"inst":4631,"ĠUnited":4632,"top":4633,"Ġsaved":4634,"Ġhighest":4635,"Ġmeta":4636,"Ġsettings":4637,"Ġrank":4638,"Ġdating":4639,"ĠToo":4640,"dr":4641,"uk":4642,"Ġhes":4643,"erg":4644,"Ġchallenge":4645,"with":4646,"LE":4647,"Ġfavour":4648,"Ġraise":4649,"Ġtradition":4650,"Ġfired":4651,"Ġcup":4652,"Ġrub":4653,"TH":4654,"uf":4655,"ils":4656,"Ġvarious":4657,"ĠComm":4658,"Ġdescrib":4659,"Ġinvestig":4660,"Ġlocation":4661,"Ġbusy":4662,"Ġchem":4663,"ĠBra":4664,"Ġachieve":4665,"iety":4666,"Ġexerc":4667,"Ġhated":4668,"la":4669,"Ġsport":4670,"ĠUp":4671,"Ġfaith":4672,"ĠMexic":4673,"RA":4674,"Ġentertain":4675,"iliar":4676,"OD":4677,"ological":4678,"ĠSomething":4679,"sey":4680,"Ġteach":4681,"Ġcheese":4682,"Ġiron":4683,"Ġflav":4684,"Ġenjoyed":4685,"Ġstronger":4686,"erate":4687,"Ġestab":4688,"ĠFire":4689,"ĠQB":4690,"GB":4691,"ĠCS":4692,"atory":4693,"inton":4694,"Ġsuic":4695,"Ġexplan":4696,"Ġadvert":4697,"this":4698,"lig":4699,"Ġimplement":4700,"Ġdiet":4701,"Ġthus":4702,"Ġbesides":4703,"Ġpump":4704,"Ġleaves":4705,"ĠGame":4706,"Ġtele":4707,"ham":4708,"Ġmillions":4709,"ĠNA":4710,"icing":4711,"Ġju":4712,"Ġspawn":4713,"ads":4714,"Ġincluded":4715,"Ġ99":4716,"Ġphoto":4717,"Ġemployees":4718,"ĠEverything":4719,"Ġlying":4720,"Ġsongs":4721,"ights":4722,"Ġneither":4723,"ĠLo":4724,"hern":4725,"Ġhilarious":4726,"attoo":4727,"ĠObviously":4728,"Ġcustomers":4729,"Ġaccom":4730,"Ġaccounts":4731,"Ġdrops":4732,"vered":4733,"Ġwage":4734,"Ġrelatively":4735,"Ġbug":4736,"Ġrain":4737,"list":4738,"orge":4739,"--------":4740,"ĠInstead":4741,"Ġbathroom":4742,"ivity":4743,"Ġmotiv":4744,"Ġpock":4745,"Ġconnection":4746,"Ġsmoking":4747,"icted":4748,"Ġdecisions":4749,"ĠDan":4750,"amples":4751,"Ġdebt":4752,"agon":4753,"ĠPat":4754,"mission":4755,"ĠFun":4756,"lebr":4757,"Ġhide":4758,"coin":4759,"Ġarrest":4760,"zz":4761,"IP":4762,"Ġtact":4763,"Ġawkward":4764,"Ġstudy":4765,"Ġtbh":4766,"Ġviews":4767,"ĠMuslim":4768,"xual":4769,"ĠThats":4770,"Ġpushing":4771,"ĠSH":4772,"EC":4773,"Ġassoci":4774,"Ġwing":4775,"Ġtruck":4776,"priate":4777,"ĠWindows":4778,"Ġwealth":4779,"Ġfreedom":4780,"Ġtransl":4781,"Ġherself":4782,"Ġshown":4783,"Ġlaunch":4784,"Ġdesk":4785,"Ġimmig":4786,"Ġoffensive":4787,"Ġhelpful":4788,"ums":4789,"Ġpregnant":4790,"Ġvill":4791,"Ġunfortunately":4792,"Ġgoals":4793,"ĠJack":4794,"ĠID":4795,"Ġprotest":4796,"Ġdump":4797,"Ġlapt":4798,"aning":4799,"500":4800,"Ġresist":4801,"ĠHad":4802,"Ġgiant":4803,"Ġservices":4804,"gging":4805,"Ġboot":4806,"ancy":4807,"while":4808,"Ġloves":4809,"ĠTHAT":4810,"Ġliberal":4811,"ĠHas":4812,"Ġhack":4813,"Ġpolitic":4814,"Ġbottle":4815,"ĠKind":4816,"arrass":4817,"aded":4818,"ĠAnt":4819,"Ġaddit":4820,"16":4821,"Ġchoices":4822,"Ġhol":4823,"gly":4824,"ĠMS":4825,"ashed":4826,"Ġdefinition":4827,"Ġaccording":4828,"ilty":4829,"Ġcomparison":4830,"they":4831,"Ġexists":4832,"Ġopponent":4833,"cellent":4834,"illing":4835,"Ġupvot":4836,"ĠRock":4837,"icated":4838,"Ġreceived":4839,"Ġconfir":4840,"Ġdisplay":4841,"Ġapproach":4842,"Ġgoogle":4843,"ĠME":4844,"ĠVal":4845,"Ġneighbor":4846,"Ġempty":4847,"Ġgeneration":4848,"rig":4849,"Ġexperienced":4850,"Ġmut":4851,"Ġarms":4852,"round":4853,"ĠYea":4854,"Ġrarely":4855,"Ġclosed":4856,"Ġflying":4857,"Ġsac":4858,"Ġwed":4859,"Ġguessing":4860,"Ġna":4861,"ĠTime":4862,"Ġjokes":4863,"Ġeth":4864,"Ġlights":4865,"ĠNobody":4866,"ĠMo":4867,"Ġfactor":4868,"ĠBernie":4869,"Ġattitude":4870,"endo":4871,"Ġtreated":4872,"Ġpunish":4873,"Ġseat":4874,"fr":4875,"Ġinteract":4876,"ighter":4877,"enses":4878,"Ġcorrupt":4879,"ĠGold":4880,"ĠDay":4881,"Ġproud":4882,"ĠMor":4883,"Ġpit":4884,"arma":4885,"Ġspam":4886,"Ġprint":4887,"Ġdefensive":4888,"ek":4889,"Ġtournam":4890,"Ġsetup":4891,"Ġwa":4892,"Ġcrack":4893,"Ġcorner":4894,"ruction":4895,"Ġtast":4896,"Ġpicking":4897,"ban":4898,"Ġtechnically":4899,"Ġshape":4900,"ĠOF":4901,"Ġ21":4902,"ĠGermany":4903,"CH":4904,"Ġhey":4905,"ĠMag":4906,"Ġ300":4907,"Ġputs":4908,"Ġsets":4909,"Ġscient":4910,"Ġembarrass":4911,"Ġtattoo":4912,"Ġbear":4913,"ĠTell":4914,"ortion":4915,"urd":4916,"Ġirre":4917,"Ġshoes":4918,"Ġparties":4919,"Ġbuddy":4920,"ĠUSA":4921,"Ġlistening":4922,"Ġnamed":4923,"ĠSecond":4924,"ĠAustralia":4925,"Ġflaw":4926,"Ġanybody":4927,"ĠBen":4928,"she":4929,"Ġmaps":4930,"ĠStop":4931,"Ġthroughout":4932,"ðŁĺ":4933,"ara":4934,"Ġconservative":4935,"Ġpref":4936,"ĠMet":4937,"eck":4938,"Ġscenario":4939,"Ġstation":4940,"ĠTwo":4941,"izes":4942,"tt":4943,"ĠHit":4944,"Ġcompetition":4945,"Ġheroes":4946,"Ġtips":4947,"Ġstruct":4948,"Ġleader":4949,"Ġkeys":4950,"Ġpizza":4951,"LLY":4952,"ĠPerhaps":4953,"Ġphones":4954,"ption":4955,"ĠBre":4956,"Ġsatisf":4957,"Ġfights":4958,"Ġsuspect":4959,"Ġheads":4960,"Ġdollar":4961,"Ġopening":4962,"Ġchances":4963,"roc":4964,"Ġtechnology":4965,"ĠJapanese":4966,"ĠDefinitely":4967,"ĠALL":4968,"Ġcombo":4969,"Ġclim":4970,"Ġreve":4971,"ĠTL":4972,"Ġcovered":4973,"Ġtree":4974,"DS":4975,"inter":4976,"Ġstatus":4977,"Ġscary":4978,"Ġtaught":4979,"ĠCall":4980,"Ġadop":4981,"Ġfilled":4982,"actly":4983,"ĠClinton":4984,"ĠTS":4985,"Ġmobile":4986,"Ġworkers":4987,"Ġattractive":4988,"ĠEast":4989,"Ġinstance":4990,"Ġmeme":4991,"ĠApparently":4992,"Ġcoach":4993,"Ġfinan":4994,"Ġdepart":4995,"Ġlegs":4996,"Ġhundreds":4997,"Ġcelebr":4998,"Ġ\\":4999,"Ġsky":5000,"ĠDLC":5001,"Ġstrategy":5002,"gged":5003,"Ġneck":5004,"Ġwalked":5005,"ique":5006,"ential":5007,"Ġpromot":5008,"Ġoptim":5009,"Ġdealing":5010,"ĠMad":5011,"Ġbringing":5012,"Ġdisappointed":5013,"Ġplans":5014,"ĠAmazon":5015,"ros":5016,"FC":5017,"Ġspin":5018,"MA":5019,"Ġsteam":5020,"ĠCont":5021,"Ġprimary":5022,"ĠDC":5023,"Ġgenuinely":5024,"ĠiPh":5025,"iable":5026,"ĠXbox":5027,"ĠPoke":5028,"ĠPar":5029,"Ġroot":5030,"Ġhadn":5031,"Ġsurvive":5032,"Ġsurprise":5033,"Ġsection":5034,"ĠRy":5035,"Ġpha":5036,"hold":5037,"ength":5038,"ĠHmm":5039,"ĠChristmas":5040,"Ġrat":5041,"Ġedge":5042,"Ġgrade":5043,"Ġdinner":5044,"ĠInterest":5045,"ĠJew":5046,"Ġdel":5047,"Ġarri":5048,"Ġmilk":5049,"olic":5050,"Ġgradu":5051,"ĠBB":5052,"Ġdemon":5053,"ĠRemember":5054,"iance":5055,"Ġcomplic":5056,"ĠShit":5057,"Ġdebate":5058,"Ġtight":5059,"bert":5060,"ĠThough":5061,"Ġshar":5062,"Ġcommand":5063,"14":5064,"Ġtall":5065,"Ġcontain":5066,"Ġcapable":5067,"Ġneut":5068,"Ġmurd":5069,"Ġformer":5070,"Ġinnoc":5071,"Ġanxiety":5072,"ĠHigh":5073,"Ġjour":5074,"Ġbillion":5075,"don":5076,"Ġsake":5077,"aven":5078,"iots":5079,"Ġincredible":5080,"acement":5081,"Ġadmin":5082,"vl":5083,"ĠRob":5084,"ĠTexas":5085,"IM":5086,"Ġstom":5087,"Ġmanagement":5088,"va":5089,"ĠYouT":5090,"Ġequip":5091,"*,":5092,"ĠPo":5093,"iforn":5094,"Ġchannel":5095,"Ġmission":5096,"Ġrif":5097,"ket":5098,"ĠRes":5099,"Ġindepend":5100,"Ġabilities":5101,"Ġtherefore":5102,"ĠBo":5103,"It":5104,"rael":5105,"Ġguilty":5106,"pha":5107,"Ġpaint":5108,"oned":5109,"lix":5110,"Ġextreme":5111,"Ġquiet":5112,"icate":5113,"Ġmechanics":5114,"Ġtypically":5115,"Ġcycle":5116,"Ġmonster":5117,"Ġexpans":5118,"uted":5119,"Ġboys":5120,"Ġanime":5121,"Ġvast":5122,"ĠEarth":5123,"soft":5124,"Ġfacts":5125,"Ġtreatment":5126,"ties":5127,"Ġarmy":5128,"Ġwow":5129,"____":5130,"Ġinvent":5131,"Ġing":5132,"ashing":5133,"bow":5134,"Ġlawy":5135,"Th":5136,"ĠDes":5137,"Ġheavily":5138,"Ġconstant":5139,"Ġreven":5140,"Ġcitizens":5141,"ĠÂ":5142,"Ġassist":5143,"Ġcities":5144,"Ġchain":5145,"ĠAnyway":5146,"ĠTur":5147,"Ġpin":5148,"Ġge":5149,"Ġatm":5150,"wood":5151,"ILL":5152,"Ġdepend":5153,"ja":5154,"rat":5155,"ĠOS":5156,"Ġwit":5157,"Ġracism":5158,"Ġemotional":5159,"Ġwake":5160,"Ġwarm":5161,"inate":5162,"St":5163,"Ġconsequ":5164,"Ġ22":5165,"airs":5166,"intendo":5167,"Ġseasons":5168,"Ġwindows":5169,"upp":5170,"Ġsharing":5171,"](":5172,"ĠWo":5173,"Ġassault":5174,"Ġvir":5175,"Ġgreatest":5176,"Ġunlock":5177,"umps":5178,"Ġens":5179,"Ġfamiliar":5180,"EM":5181,"alty":5182,"Ġstores":5183,"Ġmate":5184,"Ġchose":5185,"Ġloot":5186,"Ġexplanation":5187,"pes":5188,"ĠTor":5189,"idden":5190,"Ġepisodes":5191,"Ġpotentially":5192,"mark":5193,"TF":5194,"ĠNFL":5195,"Ġlocked":5196,"Ġcontroller":5197,"hered":5198,"ĠCity":5199,"Ġbreaks":5200,"ĠMod":5201,"Ġwelcome":5202,"Ġenter":5203,"ĠEd":5204,"Ġusual":5205,"Ġrecall":5206,"Ġchampions":5207,"Ġking":5208,"ĠCanadian":5209,"even":5210,"abs":5211,"Ġdies":5212,"Ġ45":5213,"new":5214,"Ġshirt":5215,"anda":5216,"Ġpoll":5217,"ĠDec":5218,"Ġje":5219,"iam":5220,"aying":5221,"Ġbasis":5222,"Ġdisp":5223,"Ġstated":5224,"Ġvehicle":5225,"Ġ35":5226,"Ġsentence":5227,"illed":5228,"Ġcate":5229,"antic":5230,"Ġsupply":5231,"Ġrates":5232,"ĠSan":5233,"ĠMid":5234,"ĠNO":5235,"Ġmeeting":5236,"Ġfinancial":5237,"Ġshift":5238,"asm":5239,"Ġdislike":5240,"ounced":5241,"Ġbroad":5242,"Ġreflect":5243,"egr":5244,"ĠPet":5245,"AD":5246,"ĠMa":5247,"ept":5248,"Ġtrigger":5249,"Ġterr":5250,"Ġcandidate":5251,"Ġraised":5252,"Ġ1000":5253,"Ġdocument":5254,"otic":5255,"ĠSad":5256,"Ġmac":5257,"Ġfro":5258,"Ġweb":5259,"ufact":5260,"Ġpulling":5261,"vin":5262,"Ġflow":5263,"ĠMed":5264,"Ġfool":5265,"ĠOp":5266,"Ġsubsc":5267,"Ġpants":5268,"gu":5269,"Ġrefere":5270,"ĠState":5271,"inated":5272,"Ġbac":5273,"Ġhon":5274,"Ġgif":5275,"Ġplastic":5276,"Ġunderstood":5277,"Ġfollowed":5278,"ĠPv":5279,"orters":5280,"Ġmana":5281,"Ġclaims":5282,"bar":5283,"ĠTit":5284,"ares":5285,"ato":5286,"Ġzone":5287,"ĠExactly":5288,"ĠES":5289,"bel":5290,"Ġdeserves":5291,"Ġadditional":5292,"ifornia":5293,"nes":5294,"ĠCheck":5295,"Ġhung":5296,"ĠWars":5297,"yy":5298,"range":5299,"Ġoccur":5300,"inge":5301,"inct":5302,"Ġappeal":5303,"dra":5304,"Ġlately":5305,"Ġreceive":5306,"ĠEVER":5307,"Ġcos":5308,"Ġcrying":5309,"Don":5310,"Ġcreating":5311,"Ġstack":5312,"Ġtickets":5313,"Ġpersonality":5314,"ĠLeague":5315,"Ġgam":5316,"itar":5317,"bur":5318,"Ġbelong":5319,"Ġnarr":5320,"ĠLA":5321,"Ġscript":5322,"Ġarc":5323,"kn":5324,"ĠPal":5325,"Ġdecks":5326,"Ġopposed":5327,"Ġreveal":5328,"ĠOtherwise":5329,"rast":5330,"Ġstandards":5331,"Ġanswers":5332,"Ġwheel":5333,"Ġtesting":5334,"Ġhardware":5335,"lear":5336,"ĠMight":5337,"Ġtrump":5338,"Ġnur":5339,"Ġlunch":5340,"Ġrefuse":5341,"ĠYouTube":5342,"Ġpic":5343,"Ġtor":5344,"Ġled":5345,"ĠGive":5346,"ĠSl":5347,"Ġdestroyed":5348,"Ġtoxic":5349,"Ġsalt":5350,"Ġroute":5351,"ements":5352,"ida":5353,"Ġautomatically":5354,"Ġugly":5355,"Ġchecking":5356,"ogue":5357,"ĠRussian":5358,"ivers":5359,"Ġthin":5360,"Ġoffered":5361,"Ġdy":5362,"ada":5363,"Ġregularly":5364,"ĠJe":5365,"Ġphotos":5366,"Ġswear":5367,"Ġvotes":5368,"ulate":5369,"Ġperman":5370,"Ġaccompl":5371,"mates":5372,"13":5373,"Ġcutting":5374,"hem":5375,".*":5376,"Ġintended":5377,"Ġindeed":5378,"Ġpicks":5379,"Ġdepression":5380,"Ġjun":5381,"Ġhype":5382,"oty":5383,"Ġbench":5384,"Ġopened":5385,"Ġtrading":5386,"ĠAfric":5387,"Ġinput":5388,"Ġowned":5389,"ilos":5390,"Ġtv":5391,"ĠDav":5392,"Ġsigned":5393,"Ġmedic":5394,"Ġwise":5395,"Ġaudience":5396,"orrect":5397,"Ġexperiences":5398,"ĠPR":5399,"ĠAir":5400,"flix":5401,"ugs":5402,"Ġdrag":5403,"Ġcable":5404,"Ġplane":5405,"Ġreplaced":5406,"Ġcam":5407,"Ġlaptop":5408,"Ġleaders":5409,"ĠDragon":5410,"Ġtanks":5411,"Ġordered":5412,"TS":5413,"ĠLeg":5414,"ĠSn":5415,"Ġapartment":5416,"Ġconfl":5417,"Ġnowhere":5418,"Ġincom":5419,"ĠIP":5420,"ĠStep":5421,"core":5422,"ĠiPhone":5423,"Ġsouth":5424,"Ġliqu":5425,"Ġreferring":5426,"ĠPresident":5427,"Ġuncom":5428,"ĠSpe":5429,"Ġshipping":5430,"Ġsevere":5431,"hant":5432,"Ġaddition":5433,"ĠRec":5434,"Ġpassing":5435,"phone":5436,"Ġcream":5437,"ĠWel":5438,"Ġbird":5439,"ĠSource":5440,"Ġrestaurant":5441,"Ġstaying":5442,"ĠBritish":5443,"Ġdesper":5444,"Ġkinds":5445,"Ġlength":5446,"Ġbrown":5447,"ĠCC":5448,"Ġviable":5449,"Ġnut":5450,"Ġtools":5451,"Ġtries":5452,"ĠReal":5453,"Ġexcellent":5454,"Ġhob":5455,"rier":5456,"Ġformat":5457,"ĠRead":5458,"Ġdirty":5459,"Ġeveryday":5460,"32":5461,"Ġexpert":5462,"Ġbucks":5463,"Ġdifferently":5464,"Ġcausing":5465,"Ġps":5466,"Ġdecl":5467,"Ġelectric":5468,"ĠPokemon":5469,"Ġfinger":5470,"layer":5471,"Ġfuel":5472,"Ġgift":5473,"ocol":5474,"Ġresponsibility":5475,"itut":5476,"Ġinjury":5477,"ille":5478,"TC":5479,"Ġcateg":5480,"bb":5481,"ĠTra":5482,"Ġmanufact":5483,"ĠTurn":5484,"ĠEv":5485,"Ġnu":5486,"Ġdod":5487,"olf":5488,"dom":5489,"Ġschedule":5490,"eline":5491,"ĠSC":5492,"Ġletter":5493,".âĢĿ":5494,"Ġdownvote":5495,"ĠFall":5496,"ĠMr":5497,"ĠSam":5498,"Ġemer":5499,"craft":5500,"ĠTrue":5501,"Ġtun":5502,"Ġborder":5503,"Ġregret":5504,"Ġcheating":5505,"Ġpretend":5506,"Ġsuperior":5507,"ĠREA":5508,"iate":5509,"Ġweather":5510,"nec":5511,"Ġlmao":5512,"ĠPL":5513,"Ġmainly":5514,"ĠDM":5515,"ĠBack":5516,"lly":5517,"ĠYup":5518,"ĠIsrael":5519,"watch":5520,"Ġbeta":5521,"Ġamer":5522,"Ġrude":5523,"Ġrating":5524,"Ġsquad":5525,"des":5526,"Ġreject":5527,"eds":5528,"Ġyout":5529,"ĠTom":5530,"ĠBefore":5531,"Ġcauses":5532,"zer":5533,"ĠPaul":5534,"Ġsurprising":5535,"enc":5536,"FA":5537,"Ġapps":5538,"PG":5539,"Ġpossibility":5540,"Ġsword":5541,"Ġeast":5542,"ishes":5543,"avy":5544,"ĠPe":5545,"Ġrow":5546,"ĠUse":5547,"ĠTot":5548,"Ġdefault":5549,"Ġske":5550,"Ġscreens":5551,"Ġstruggle":5552,"cons":5553,"Ġconfirmed":5554,"hard":5555,"ĠFrench":5556,"Ġrom":5557,"hers":5558,"Ġcalories":5559,"Ġelement":5560,"abor":5561,"pm":5562,"Ġnuts":5563,"ĠJim":5564,"ĠThing":5565,"ĠBel":5566,"Ġboat":5567,"word":5568,"wing":5569,"ĠTer":5570,"Ġproduce":5571,"Ġinfluence":5572,"%.":5573,"Ġclient":5574,"Ġmanip":5575,"Ġsuicide":5576,"Ġequival":5577,"ĠSil":5578,"Ġhistor":5579,"Ġsurround":5580,"Ġspr":5581,"Ġsupporting":5582,"ĠNaz":5583,"Ġjustify":5584,"ki":5585,"Ġsen":5586,"Ġtap":5587,"Ġdise":5588,"ĠJon":5589,"ady":5590,"Ġeggs":5591,"ĠCalifornia":5592,"Ġconsistent":5593,"Ġdial":5594,"whel":5595,"ĠFucking":5596,"Ġsoul":5597,"Ġwinter":5598,"ho":5599,"ĠStart":5600,"Ġinsult":5601,"ĠNintendo":5602,"Ġbadly":5603,"Ġruin":5604,"Ġcareful":5605,"Ġconvinced":5606,"ĠCome":5607,"Ġalot":5608,"Ġwhose":5609,"lands":5610,"Ġinstantly":5611,"Ġparticip":5612,"Ġmistakes":5613,"ĠSteam":5614,"ĠAR":5615,"Ġ2016":5616,"Ġbtw":5617,"Ġretarded":5618,"Ġ!":5619,"iped":5620,"HH":5621,"Ġdepth":5622,"ado":5623,"utch":5624,"overed":5625,"Ġclassic":5626,"Ġexpand":5627,"OOOO":5628,"Ġnoise":5629,"ĠNext":5630,"Ġphysically":5631,"Ġcondit":5632,"Ġshall":5633,"Ġhardly":5634,"Ġath":5635,"Ġplant":5636,"uming":5637,"Ġsacr":5638,"ressing":5639,"igs":5640,"Ġsurger":5641,"ĠTim":5642,"Ġdragon":5643,"ĠHouse":5644,"Ġfellow":5645,"Ġlan":5646,"Ġder":5647,"Ġthreads":5648,"str":5649,"Ġdownvotes":5650,"urb":5651,"ĠGreen":5652,"Ġcock":5653,"ona":5654,"chen":5655,"Ġfold":5656,"Ġpowers":5657,"ulk":5658,"Ġplayoffs":5659,"ĠAI":5660,"Ġhorse":5661,"ula":5662,"fit":5663,"18":5664,"Ġsch":5665,"Ġquote":5666,"part":5667,"Ġrum":5668,"ĠEm":5669,"Ġignorant":5670,"Ġfort":5671,"cend":5672,"Ġassumed":5673,"Ġmal":5674,"Ġshower":5675,"ĠSol":5676,"ĠLOL":5677,"net":5678,"ĠIslam":5679,"Ġmotor":5680,"Ġlisted":5681,"ĠHP":5682,"Ġproven":5683,"Ġranked":5684,"Ġdisgusting":5685,"Ġsne":5686,"Ġpokemon":5687,"lished":5688,"Ġbright":5689,"has":5690,"Ġlicense":5691,"Ġbrings":5692,"uclear":5693,"Ġdescribe":5694,"Ġexchange":5695,"ĠIdk":5696,"ĠCPU":5697,"ĠAbs":5698,"Ġmicro":5699,"Ġcriminal":5700,"Ġfranch":5701,"Ġemployee":5702,"Ġleads":5703,"cient":5704,"Ġmouse":5705,"Ġtrend":5706,"ception":5707,"ĠIntern":5708,"Ġsugar":5709,"rage":5710,"Ġtoler":5711,"Ġfrustrating":5712,"ĠRepublicans":5713,"Ġentit":5714,"Ġjustice":5715,"Ġstands":5716,"Ġships":5717,"Ġrepublic":5718,"ĠHD":5719,"Ġcats":5720,"itution":5721,"Ġparking":5722,"Ġrelationships":5723,"Ġidiots":5724,"esh":5725,"inder":5726,"Ġassholes":5727,"FF":5728,"Ġunivers":5729,"Ġpod":5730,"Ġconsistently":5731,"Ġfantasy":5732,"ĠSP":5733,"Ġequipment":5734,"Ġexamples":5735,"Ġlibr":5736,"orce":5737,"Ġconclus":5738,"ours":5739,"Ġhall":5740,"Ġfederal":5741,"Ġregion":5742,"Ġrush":5743,"Ġflight":5744,"Ġprofile":5745,"Ġbirthday":5746,"agger":5747,"Ġsites":5748,"rome":5749,"Ġbod":5750,"Ġconfident":5751,"Ġpc":5752,"Ġhire":5753,"who":5754,"Ġzomb":5755,"ĠTHIS":5756,"olve":5757,"Ġpushed":5758,"Ġgraphics":5759,"Ġexistence":5760,"Ġbeliefs":5761,"ĠUlt":5762,"ĠDS":5763,"Ġpil":5764,"Ġwonderful":5765,"ĠHy":5766,"Ġlabel":5767,"Ġpill":5768,"Ġknife":5769,"Ġinnocent":5770,"Ġdeveloped":5771,"Ġpattern":5772,"Ġalternative":5773,"Ġintent":5774,"Ġcollection":5775,"Ġthrew":5776,"Ġappropriate":5777,"Ġfeedback":5778,"ĠSur":5779,"ago":5780,"Ġimpressive":5781,"Ġthrown":5782,"Ġeconomic":5783,"Ġprec":5784,"fire":5785,"ĠIron":5786,"Ġvalues":5787,"Ġmixed":5788,"Ġdefe":5789,"Ġholy":5790,"ĠPort":5791,"erk":5792,"IV":5793,"Ġfee":5794,"Ġmail":5795,"ester":5796,"Ġwest":5797,"angers":5798,"ĠSk":5799,"Ġteaching":5800,"uable":5801,"ĠSub":5802,"inity":5803,"Ġain":5804,"ests":5805,"ram":5806,"Ġappears":5807,"Ġdecade":5808,"Ġathlet":5809,"Ġcalcul":5810,"',":5811,"uary":5812,"olt":5813,"Ġmeal":5814,"Ġsolve":5815,"!)":5816,"Ġlag":5817,"Ġexplained":5818,"Ġuncomfortable":5819,"Ġregarding":5820,"Ġmort":5821,"Ġinitial":5822,"onn":5823,"Ġâ":5824,"opp":5825,"Ġpocket":5826,"Ġincreased":5827,"ĠCL":5828,"Ġadvance":5829,"Ġgoo":5830,"uries":5831,"Ġacce":5832,"Ġmodels":5833,"ĠBit":5834,"Ġdecades":5835,"ĠFB":5836,"Ġfasc":5837,"Ġkicked":5838,"ĠÂ£":5839,"Ġuniversity":5840,"75":5841,"ĠSou":5842,"Ġlegitimate":5843,"Ġkarma":5844,"tain":5845,"ĠLife":5846,"Ġintegr":5847,"Ġguarantee":5848,"Ġrestrict":5849,"Ġprograms":5850,"Ġic":5851,"Ġcommer":5852,")?":5853,"ĠEngland":5854,"iper":5855,"inary":5856,"Ġloose":5857,"Ġvolume":5858,"Ġsilver":5859,"ĠInteresting":5860,"ĠStates":5861,"Ġpal":5862,"Ġstere":5863,"Ġalright":5864,"ĠMicro":5865,"mart":5866,"Ġcrew":5867,"Ġfiles":5868,"aaaa":5869,"Ġconditions":5870,"Ġhates":5871,"Ġdunno":5872,"Ġbound":5873,"Ġsear":5874,"Ġreduce":5875,"Ġpra":5876,"Ġcolors":5877,"Ġgross":5878,"vest":5879,"Ġfailure":5880,"izzard":5881,"Ġpackage":5882,"Ġlaun":5883,"Ġwedding":5884,"ĠAL":5885,"Ġfalling":5886,"hael":5887,"Ġwire":5888,"Ġspect":5889,"Ġfocused":5890,"Ġdip":5891,"Ġmonitor":5892,"uty":5893,"Ġofficer":5894,"vey":5895,"uzz":5896,"35":5897,"ĠLight":5898,"uman":5899,"athy":5900,"Ġunlikely":5901,"Ġserve":5902,"Ġerror":5903,"ĠDead":5904,"iders":5905,"Ġbeating":5906,"Ġpacks":5907,"ba":5908,"In":5909,"Ġsmooth":5910,"EEEE":5911,"ĠLuck":5912,"Ġsupporters":5913,"Ġstun":5914,"ĠML":5915,"Ġvirt":5916,"Ġhealthcare":5917,"Ġbored":5918,"Ġspirit":5919,"base":5920,"Ġgreater":5921,"Ġeffectively":5922,"ĠDown":5923,"good":5924,"ĠBrown":5925,"Ġlaug":5926,"mber":5927,"rior":5928,"Ġwrest":5929,"Ġthick":5930,"iber":5931,"Ġcomed":5932,"Ġhanging":5933,"Ġupdates":5934,"Ġbutter":5935,"ander":5936,"Ġchap":5937,"Ġminority":5938,"ĠLuc":5939,"ĠHapp":5940,"house":5941,"ĠAndroid":5942,"ene":5943,"Ġdat":5944,"may":5945,"Ġpassive":5946,"ĠBill":5947,"Ġhealing":5948,"Ġram":5949,"Ġstars":5950,"Ġteeth":5951,"Ġgodd":5952,"pop":5953,"Ġactively":5954,"Ġplate":5955,"Ġpoorly":5956,"Ġcontr":5957,"ĠMal":5958,"ulated":5959,"Ġhurts":5960,"Ġsignificantly":5961,"Ġradio":5962,"Ġkeyboard":5963,"Ġcomfort":5964,"aken":5965,"ww":5966,"ints":5967,"Ġdelay":5968,"Ġbrows":5969,"Oh":5970,"Ġsole":5971,"necess":5972,"RS":5973,"Ġsending":5974,"Ġbasket":5975,"Ġast":5976,"Ġwarning":5977,"Ġpunch":5978,"Ġcircumst":5979,"ĠDest":5980,"Ġack":5981,"ĠMO":5982,"Ġexercise":5983,"Ġaggressive":5984,"Ġwet":5985,"see":5986,"Ġcig":5987,"ora":5988,"Ġreviews":5989,"ĠComp":5990,"Ġtypical":5991,"Ġclue":5992,"ria":5993,"Ġflip":5994,"Ġyellow":5995,"Ġsequ":5996,"Ġaccepted":5997,"ocking":5998,"Ġbars":5999,"ĠAcc":6000,"Ġviolent":6001,"Ġnons":6002,"ĠBattle":6003,"ĠFriday":6004,"Ġdiss":6005,"stal":6006,"ilies":6007,"Ġleading":6008,"If":6009,"ĠSun":6010,"NG":6011,"Ġtwist":6012,"stone":6013,"Ġ)":6014,"Ġmini":6015,"Ġequivalent":6016,"Ġdropping":6017,"Ġaudio":6018,"Ġconven":6019,"lers":6020,"geon":6021,"herent":6022,"Ġhip":6023,"Ġexpansion":6024,"Ġstorm":6025,"abled":6026,"Ġmarketing":6027,"Ġbugs":6028,"Ġprob":6029,"Ġmoral":6030,"ĠSund":6031,"Ġacknow":6032,"Ġartist":6033,"Ġcraft":6034,"ĠMark":6035,"run":6036,"asty":6037,"Ġsigns":6038,"Ġphr":6039,"VP":6040,"Ġmoments":6041,"elling":6042,"Ġsees":6043,"uge":6044,"ĠRepublican":6045,"Ġsin":6046,"vis":6047,"levant":6048,"ĠBad":6049,"Ġprotection":6050,"ashion":6051,"Ġ->":6052,"Ġinvestment":6053,"Ġtoile":6054,"Ġwave":6055,"ĠUsually":6056,"Ġtea":6057,"Ġtemper":6058,"Ġpredict":6059,"eless":6060,"ĠBetter":6061,"ĠFrank":6062,"Ġidk":6063,"incip":6064,"rog":6065,"Ġ75":6066,"Ġmanual":6067,"Ġcharges":6068,"Ġgrowth":6069,"Ġflu":6070,"ulting":6071,"Ġfet":6072,"Ġcrash":6073,"Ġgar":6074,"Ġconvince":6075,"post":6076,"Ġstops":6077,"Ġescape":6078,"ĠDeath":6079,"ĠIV":6080,"Ġdouche":6081,"Ġadds":6082,"Ġmoon":6083,"ĠSU":6084,"ĠBay":6085,"uster":6086,"Ġprime":6087,"Ġblast":6088,"star":6089,"Ġfits":6090,"Ġreset":6091,"Ġsteps":6092,"Ġdim":6093,"Ġsleeping":6094,"Ġsuggestions":6095,"Ġallowing":6096,"Ġstrike":6097,"idents":6098,"rely":6099,"Ġsalary":6100,"........":6101,"win":6102,"Ġnose":6103,"AP":6104,"ĠGM":6105,"Ġdelic":6106,"essed":6107,"ĠAwesome":6108,"Ġcriticism":6109,"ĠAlways":6110,"Ġcab":6111,"ĠMer":6112,"ĠCool":6113,"Ġdrama":6114,"Ġfirm":6115,"Ġattacking":6116,"Ġpenis":6117,"fe":6118,"ĠDN":6119,"Ġlvl":6120,"Ġsurgery":6121,"Ġpointed":6122,"Ġcreepy":6123,"Ġideal":6124,"Ġharass":6125,"ĠAc":6126,"Ġarguments":6127,"oses":6128,"akers":6129,"Ġabsurd":6130,"ounter":6131,"ded":6132,"non":6133,"Ġphilos":6134,"weight":6135,"ĠIll":6136,"Ġcake":6137,"ĠCent":6138,"Ġacceptable":6139,"Ġ@":6140,"ĠOff":6141,"Ġgrown":6142,"Ġpositions":6143,"Ġstab":6144,"Ġpa":6145,"Ġmeasure":6146,"fast":6147,"Ġbatt":6148,"pass":6149,"Ġforces":6150,"Ġpointing":6151,"Ġ31":6152,"Ġ_":6153,"rie":6154,"Ġsurface":6155,"Ġcomplicated":6156,"Ġcheat":6157,"Ġbelief":6158,"ĠHun":6159,"Ġplain":6160,"reet":6161,"resh":6162,"Ġdepartment":6163,"Ġcharged":6164,"anta":6165,"KE":6166,"Ġefficient":6167,"iculty":6168,"Ġmelee":6169,"Ġstone":6170,":**":6171,"Ġrepeat":6172,"ĠPark":6173,"Ġamb":6174,"Ġfavourite":6175,"Ġveget":6176,"Ġamounts":6177,"ĠWouldn":6178,"Ġyoutube":6179,"ĠWR":6180,"ĠMart":6181,"Ġbalanced":6182,"sen":6183,"Ġplug":6184,"cles":6185,"Ġfingers":6186,"Ġdrives":6187,"Ġbread":6188,"anish":6189,"Ġmaxim":6190,"Ġfamilies":6191,"Ġ23":6192,"uding":6193,"kers":6194,"ĠMat":6195,"ita":6196,"yl":6197,"ĠAnything":6198,"Ġinternational":6199,"rough":6200,"Ġcritical":6201,"Ġdeals":6202,"Ġoffers":6203,"ĠCap":6204,"some":6205,"ĠYork":6206,"acle":6207,"Ġcalm":6208,"ĠBE":6209,"Ġoriginally":6210,"Ġlaughing":6211,"Ġidentity":6212,"ĠBlue":6213,"bi":6214,"Ġ26":6215,"Ġpercentage":6216,"ĠAbsolut":6217,"ribly":6218,"onic":6219,"ushed":6220,"ealous":6221,"Ġdudes":6222,"Ġstrict":6223,"Ġruined":6224,"Ġsup":6225,"Ġdesire":6226,"Ġrelax":6227,"Ġbang":6228,"bble":6229,"Ġtrained":6230,"war":6231,"mar":6232,"adem":6233,"ĠKorea":6234,"ĠAB":6235,"hal":6236,"Ġvariety":6237,"irl":6238,"Ġchampion":6239,"Ġfle":6240,"utor":6241,"Ġrecognize":6242,"ĠGetting":6243,"acc":6244,"Ġinterests":6245,"Ġspells":6246,"Ġboxes":6247,"Ġtraditional":6248,"Ġtalks":6249,"Ġconsequences":6250,"Ġglobal":6251,"Ġelim":6252,"Ġfees":6253,"ĠNone":6254,"Ġorg":6255,"Ġ:-":6256,"Ġbuilds":6257,"Ġconnected":6258,"Ġflair":6259,"Ġmedium":6260,"Ġera":6261,"Ġrealistic":6262,"Ġimpression":6263,"Ġrig":6264,"Ġdistract":6265,"pool":6266,"ĠDemocrats":6267,"Ġpir":6268,"ĠRun":6269,"Ġsuffer":6270,"Ġnovel":6271,"fall":6272,"ername":6273,"usive":6274,"ockey":6275,"rain":6276,"ĠMil":6277,"itation":6278,"acity":6279,"ĠARE":6280,"Ġpee":6281,"Ġdoctors":6282,"ĠNetflix":6283,"ĠMakes":6284,"ĠMY":6285,"Ġsight":6286,"No":6287,"Ġunfair":6288,"ĠMichael":6289,"HAHA":6290,"Ġrecru":6291,"Ġphase":6292,"orida":6293,"Ġaccidentally":6294,"icious":6295,"ji":6296,"Ġshiny":6297,"Ġvaluable":6298,"gency":6299,"Ġslot":6300,"Ġbuck":6301,"ĠOld":6302,"ancing":6303,"Ġtournament":6304,"born":6305,"Ġclos":6306,"Ġadults":6307,"ĠEuropean":6308,"ĠUnder":6309,"Ġcommercial":6310,"Ġkiss":6311,"ĠLots":6312,"Ġrage":6313,"Ġwarrant":6314,"Ġquarter":6315,"ĠBS":6316,"ĠBur":6317,"Ġdistrib":6318,"ĠYet":6319,"ĠLooking":6320,"Ġprincip":6321,"Ġenjoying":6322,"ache":6323,"ĠColl":6324,"allow":6325,"Ġrewards":6326,"](/":6327,"Ġtheme":6328,"ĠFox":6329,"ushing":6330,"Ġdifficulty":6331,"Ġdiagn":6332,"ĠGlad":6333,"Ġsources":6334,"Ġcert":6335,"Ġheight":6336,"Ġdevs":6337,"300":6338,"Ġnuclear":6339,"Ġwtf":6340,"Ġwash":6341,"Ġdefending":6342,"retch":6343,"Ġ150":6344,"Ġmile":6345,"inger":6346,"Ġstable":6347,"Ġcoo":6348,"Ġtone":6349,"ĠWithout":6350,"ĠBatman":6351,"ĠFOR":6352,"piracy":6353,"Ġcoins":6354,"Ġpron":6355,"etic":6356,"Ġsla":6357,"Ġfranchise":6358,"Ġorganization":6359,"ura":6360,"ĠCH":6361,"Ġghost":6362,"Ġcous":6363,"usted":6364,"Ġunnecess":6365,"ĠUnt":6366,"Ġteachers":6367,"xy":6368,"Ġtests":6369,"ĠWhe":6370,"Ġfrequently":6371,"Ġpics":6372,"orable":6373,"Ġtrailer":6374,"ĠHalf":6375,"Ġinstant":6376,"ĠTech":6377,"17":6378,"Ġagreed":6379,"Ġwars":6380,"ĠGO":6381,"Ġconfidence":6382,"Ġads":6383,"ĠAlex":6384,"hile":6385,"PC":6386,"ĠSM":6387,"ĠHE":6388,"Ġshell":6389,"Ġcomic":6390,"Ġconflict":6391,"Ġstayed":6392,"ĠChan":6393,"Ġriding":6394,"Ġscreaming":6395,"Ġchrist":6396,"Ġincreasing":6397,"stream":6398,"Ġcoin":6399,"Ġprepared":6400,"free":6401,"istics":6402,"ĠBF":6403,"Ġbelt":6404,"udd":6405,"Ġlegally":6406,"Ġforg":6407,"Ġarguing":6408,"Ġtrial":6409,"Ġmenu":6410,"only":6411,"Ġlabor":6412,"Ġbast":6413,"Ġpatient":6414,"Ġnotes":6415,"19":6416,"ĠMC":6417,"Ġblank":6418,"Ġsettle":6419,"Ġswing":6420,"ĠEnd":6421,"ĠWay":6422,"Ġpointless":6423,"Ġdiscount":6424,"ĠSanders":6425,"Ġ400":6426,"Ġsupports":6427,"Ġexisting":6428,"Ġdevices":6429,"ĠIndian":6430,"Ġplanned":6431,"ĠEver":6432,"ĠTri":6433,"ĠAgreed":6434,"Ġups":6435,"Ġfundament":6436,"alax":6437,"Ġpuss":6438,"olly":6439,"ĠLO":6440,"Ġmuscle":6441,"Ġtear":6442,"ĠGuess":6443,"aling":6444,"Ġspecies":6445,"Ġpoliticians":6446,"ĠMiss":6447,"Ġinsp":6448,"SS":6449,"Ġlies":6450,"Ġate":6451,"ustain":6452,"Ġelsewhere":6453,"Ġnaturally":6454,"uous":6455,"orage":6456,"Ġbeast":6457,"ĠAbout":6458,"Ġretail":6459,"Ġpounds":6460,"Ġunable":6461,"RR":6462,"LD":6463,"ĠEVERY":6464,"Ġlin":6465,"ĠFrance":6466,"ĠMicrosoft":6467,"vy":6468,"icial":6469,"ĠUni":6470,"45":6471,"Ġcompete":6472,"ĠIr":6473,"ĠArt":6474,"Ġvision":6475,"ĠQue":6476,"ston":6477,"lines":6478,"Ġmast":6479,"Ġwalls":6480,"shot":6481,"ĠMine":6482,"Ġdust":6483,"bon":6484,"ĠBall":6485,"Ġlawyer":6486,"Ġpray":6487,"ternal":6488,"Ġdifferences":6489,"Ġexperiment":6490,"ĠLong":6491,"ĠSch":6492,"Ġrolling":6493,"Ġnorth":6494,"apped":6495,"rants":6496,"Ġloan":6497,"Ġfilter":6498,"ĠTR":6499,"Ġtransition":6500,"olved":6501,"Ġplaced":6502,"Ġpolicies":6503,"Ġfreaking":6504,"Ġ28":6505,"Ġrise":6506,"Ġscrewed":6507,"Ġdoub":6508,"Ġportion":6509,"Ġwhoever":6510,"ĠFF":6511,"Ġguaranteed":6512,"Ġmeas":6513,"hot":6514,"Ġbrut":6515,"Ġunre":6516,"Ġcoast":6517,"Ġsym":6518,"ĠCB":6519,"What":6520,"nal":6521,"Ġmissions":6522,"Ġvoc":6523,"ĠJan":6524,"istration":6525,"Ġdedicated":6526,"Ġreported":6527,"Ġtoilet":6528,"Ġscenes":6529,"rum":6530,"Ġbri":6531,"Ġtoward":6532,"vable":6533,"Ġca":6534,"Ġneighb":6535,"Ġsymb":6536,"coming":6537,"Ġbabies":6538,"nn":6539,"ĠInf":6540,"Ġsemi":6541,"Ġmachines":6542,"Ġstereoty":6543,"Ġ32":6544,"Ġdevelopers":6545,"Ġextent":6546,"yes":6547,"...\"":6548,"there":6549,"ulations":6550,"Ġnarrative":6551,"ashes":6552,"Ġmyth":6553,"inating":6554,"ĠMario":6555,"jo":6556,"ĠDa":6557,"ĠMA":6558,"ĠTop":6559,"Ġmessages":6560,"za":6561,"Ġbills":6562,"ĠAsian":6563,"Ġpromise":6564,"ingly":6565,"Ġupdated":6566,"ĠMcC":6567,"Ġadvoc":6568,"ĠâĢĺ":6569,"Ġgap":6570,"inite":6571,"icago":6572,"Ġirrelevant":6573,"Ġadm":6574,"Ġspots":6575,"ĠDen":6576,"urt":6577,"Ġfalls":6578,"UST":6579,"ĠGoing":6580,"Ġstretch":6581,"Ġtort":6582,"bro":6583,"Ġloving":6584,"igan":6585,"ĠWatch":6586,"Ġgang":6587,"icy":6588,"asp":6589,"ĠZe":6590,"aturday":6591,"Ġroster":6592,"ormal":6593,"Ġacts":6594,"Ġfashion":6595,"overy":6596,"Ġcod":6597,"Ġbullet":6598,"Ġskip":6599,"Ġstopping":6600,"Ġupvote":6601,"Ġnonsense":6602,"PN":6603,"ĠEmp":6604,"Ġconfusing":6605,"Ġswim":6606,"Ġammo":6607,"ĠFA":6608,"Ġhidden":6609,"ĠVeg":6610,"Ġorders":6611,"Ġourselves":6612,"Ġengage":6613,"ĠBlood":6614,"ĠSunday":6615,"ysis":6616,"rol":6617,"Ġrepeated":6618,"Ġneighborhood":6619,"TA":6620,"Ġroutine":6621,"Ġactivity":6622,"uto":6623,"Ġphilosoph":6624,"Ġdrinks":6625,"Ġdiam":6626,"istically":6627,"ocks":6628,"Ġ2000":6629,"Ġreput":6630,"iat":6631,"Ġjealous":6632,"Ġdescribed":6633,"Ġpoison":6634,"Ġupper":6635,"Ġwallet":6636,"Ġtitles":6637,"IA":6638,"Ġclock":6639,"Ġawhile":6640,"ĠPower":6641,"Ġsan":6642,"Ġbreath":6643,"aus":6644,"ĠTod":6645,"ubs":6646,"Ġdegrees":6647,"Ġdelete":6648,"Ġfreak":6649,"Ġasks":6650,"Ġblocks":6651,"Ġenforce":6652,"Ġequally":6653,"Ġversions":6654,"Ġfarming":6655,"ĠSA":6656,"Ġsuffering":6657,"Ġsandw":6658,"22":6659,"ĠCat":6660,"ĠAlmost":6661,"uana":6662,"Ġwhats":6663,"ondon":6664,"We":6665,"pret":6666,"umer":6667,"ican":6668,"Ġbowl":6669,"atholic":6670,"ville":6671,"Ġkitchen":6672,"bet":6673,"Ġtrees":6674,"Ġentitled":6675,"Ġburst":6676,"ĠRegard":6677,"ags":6678,"Ġfilms":6679,"Ġhomeless":6680,"rency":6681,"Ġupload":6682,"Ġoccasionally":6683,"Ġgig":6684,"GA":6685,"ĠJames":6686,"Ġincent":6687,"sha":6688,"Ġultimately":6689,"ĠVR":6690,"hib":6691,"Ġorange":6692,"Ġpassion":6693,"Ġflex":6694,"Ġaband":6695,"Ġskins":6696,"ĠKo":6697,"ĠEX":6698,"Ġtransport":6699,"Ġapplied":6700,"ader":6701,"ION":6702,"rr":6703,"Ġneutral":6704,".**":6705,"Ġreplacement":6706,"ĠCD":6707,"ĠJoe":6708,"Ġscam":6709,"Ġencourage":6710,"ĠPay":6711,"Ġtab":6712,"Ġrounds":6713,"Ġchair":6714,"Ġtested":6715,"Ġnightm":6716,"Ġbags":6717,"ĠMax":6718,"Ġfamous":6719,"ava":6720,"Ġtied":6721,"ĠNight":6722,"Ġtape":6723,"Ġdigital":6724,"ĠGPU":6725,"Ġlaid":6726,"Ġthousand":6727,"ĠÌ":6728,"Ġvoters":6729,"Ġassign":6730,"Ġtie":6731,"ĠNor":6732,"Ġprovided":6733,"ĠANY":6734,"ownt":6735,"ye":6736,"aint":6737,"Ġhyper":6738,"Ġacqu":6739,"ko":6740,"ya":6741,"Ġsmile":6742,"Ġroughly":6743,"Ġretire":6744,"Ġdur":6745,"ĠHitler":6746,"onday":6747,"Ġwestern":6748,"Ġtechnical":6749,"EO":6750,"Ġangle":6751,"onder":6752,"los":6753,"Ġchill":6754,"ĠFlorida":6755,"ĠNBA":6756,"Ġannounce":6757,"ĠLiterally":6758,"Ġexclusive":6759,"related":6760,"ĠAbsolutely":6761,"Ġcombined":6762,"Ġoffended":6763,"ONE":6764,"Ġjuice":6765,"Ġstruggling":6766,"Ġcloud":6767,"ĠFinally":6768,"ĠUntil":6769,"Ġcooking":6770,"Ġsuggested":6771,"Ġ2015":6772,"iation":6773,"rian":6774,"Ġflavor":6775,"Ġadvent":6776,"Ġnom":6777,"because":6778,"ĠLord":6779,"riors":6780,"UU":6781,"ĠRE":6782,"Ġindic":6783,"Ġexplos":6784,"Ġinstalled":6785,"ĠAlright":6786,"rid":6787,"Ġfucks":6788,"Ġhumor":6789,"look":6790,"Ġhouses":6791,"ĠUN":6792,"Ġtheres":6793,"Ġsyn":6794,"Ġusername":6795,"Ġshared":6796,"ĠLin":6797,"Ġbothered":6798,"GE":6799,"ini":6800,"Ġsect":6801,"ĠIM":6802,"Ġ1080":6803,"Ġstructure":6804,"lor":6805,"Ġexha":6806,"iqu":6807,"Ġsuggestion":6808,"Ġtherapy":6809,"Ġexception":6810,"Ġscan":6811,"ĠKn":6812,"life":6813,"ĠCra":6814,"Ġworlds":6815,"Ġhypocr":6816,"eration":6817,"Ġrifle":6818,"Ġclarify":6819,"Ġcommitted":6820,"Ġshif":6821,"ĠDi":6822,"pting":6823,"irts":6824,"Ġrational":6825,"Ġindividuals":6826,"gins":6827,"year":6828,"pa":6829,"hr":6830,"ste":6831,"Ġmand":6832,"Ġfunct":6833,"phones":6834,"Ġq":6835,"ĠIve":6836,"Ġdivision":6837,"HT":6838,"Ġbum":6839,"loc":6840,"ĠJer":6841,"Ġvend":6842,"Ġmulti":6843,"Ġsarc":6844,"apping":6845,"Ġtower":6846,"rats":6847,"Ġelite":6848,"Ġtoss":6849,"Donald":6850,"Ġthumb":6851,"Ġreminds":6852,"Ġoffering":6853,"Ġdict":6854,"PP":6855,"rets":6856,"Ġloses":6857,"ĠII":6858,"Ġpropag":6859,"Ġoverwhel":6860,"ĠMen":6861,"Ġcoverage":6862,"Ġsteel":6863,"apers":6864,"ERE":6865,"ĠNC":6866,"ĠDisney":6867,"Ġjumping":6868,"Ġproceed":6869,"vity":6870,"Ġhanded":6871,"Ġafterwards":6872,"Ġraw":6873,"Ġguide":6874,"ĠRel":6875,"wr":6876,"Ġlas":6877,"Ġsympt":6878,"leg":6879,"Ġdish":6880,"Ġbias":6881,"Ġhunting":6882,"ĠInternet":6883,"iled":6884,"SE":6885,"Ġvisual":6886,"Ġbodies":6887,"every":6888,"Ġkiller":6889,"Ġsymp":6890,"ĠSen":6891,"Ġlegendary":6892,"Ġlatest":6893,"Ġcombination":6894,"Ġcuts":6895,"Ġprojects":6896,"Ġax":6897,"ĠMM":6898,"ĠÃ":6899,"afe":6900,"Ġreliable":6901,"Ġimproved":6902,"ĠPost":6903,"Ġbackwards":6904,"equ":6905,"Ġjoking":6906,"Ġutter":6907,"adays":6908,"Ġcorporate":6909,"ĠBell":6910,"Ġdescription":6911,"ctor":6912,"Ġhousing":6913,"Ġdoors":6914,"licit":6915,"ĠMel":6916,"inds":6917,"ĠPvP":6918,"itt":6919,"ĠHR":6920,"Ġswap":6921,"ĠRB":6922,"Ġspray":6923,"reme":6924,"Ġ27":6925,"imm":6926,"ĠJones":6927,"maybe":6928,"Ġ2014":6929,"ĠFree":6930,"Ġabortion":6931,"Ġnative":6932,"Ġpays":6933,"Ġexpress":6934,"ĠBL":6935,"attle":6936,"Ġcomprom":6937,"cs":6938,"Ġrely":6939,"Ġdisease":6940,"Ġ2017":6941,"Ġattend":6942,"Ġstomach":6943,"Ġlogical":6944,"Ġguild":6945,"ĠHello":6946,"Ġpayment":6947,"hab":6948,"alaxy":6949,"Ġloop":6950,"Ġpainful":6951,"Ġincorrect":6952,"Ġshadow":6953,"Ġbreast":6954,"Ġintelligent":6955,"Ġjungle":6956,"ĠChicago":6957,"known":6958,"Ġforth":6959,"This":6960,"omed":6961,"ĠThings":6962,"season":6963,"Ġvehicles":6964,"Ġrandomly":6965,"osis":6966,"Ġinsan":6967,"ett":6968,"uting":6969,"Ġsexy":6970,"ĠRom":6971,"ku":6972,"Ġdelicious":6973,"erve":6974,"ĠIG":6975,"Ġcleaning":6976,"Ġentry":6977,"arden":6978,"Ġrip":6979,"ĠCAN":6980,"Ġstorage":6981,"ĠDPS":6982,"Ġsurely":6983,"Ġdeliver":6984,"sm":6985,"Ġshocked":6986,"ĠWE":6987,"Ġswitched":6988,"Ġcontrovers":6989,"Ġmonsters":6990,"ĠDE":6991,"Ġbelieved":6992,"Ġwitness":6993,"Ġroomm":6994,"ĠDel":6995,"Ġalien":6996,"Ġliquid":6997,"ano":6998,"ĠFC":6999,"Ġbasketball":7000,"ĠSony":7001,"Ġjerk":7002,"Ġyoure":7003,"Ġincludes":7004,"power":7005,"ĠMike":7006,"Ġexciting":7007,"Ġfought":7008,"Ġnerv":7009,"Ġmentally":7010,"Ġsorts":7011,"Ġarticles":7012,"ĠEh":7013,"Ġwre":7014,"ĠHel":7015,"Ġhabit":7016,"Ġlibrary":7017,"adium":7018,"ĠTre":7019,"ighters":7020,"Ġdeny":7021,"iller":7022,"UR":7023,"ether":7024,"Ġchecks":7025,"Ġmultiplayer":7026,"ĠDepends":7027,"Ġpunishment":7028,"ĠFar":7029,"ĠBeen":7030,"Ġselfish":7031,"really":7032,"sl":7033,"bell":7034,"ocolate":7035,"Ġcommunication":7036,"Ġdeleted":7037,"Ġcircumstances":7038,"ĠLOT":7039,"pan":7040,"Ġrealise":7041,"Ġmechanic":7042,"Ġfighter":7043,"Ġsubmit":7044,"ipes":7045,"Ġultimate":7046,"ĠIndia":7047,"**.":7048,"Ġfart":7049,"Ġodds":7050,"Ġsucked":7051,"ĠBow":7052,"sk":7053,"fting":7054,"Ġrepair":7055,"Ġattached":7056,"Ġfruit":7057,"Ġtail":7058,"pol":7059,"itz":7060,"respect":7061,"Ġwasted":7062,"Ġattacked":7063,"Ġmedi":7064,"Ġexpectations":7065,"Ġguitar":7066,"Ġgods":7067,"ĠEA":7068,"istol":7069,"ĠAtt":7070,"Ġrefused":7071,"outhern":7072,"ĠVer":7073,"istent":7074,"Ġarrested":7075,"org":7076,"inals":7077,"Ġpros":7078,"Ġ`":7079,"Ġfacebook":7080,"ford":7081,"aby":7082,"name":7083,"iser":7084,"mind":7085,"Ġexplaining":7086,"Ġholds":7087,"ĠHalo":7088,"Ġcred":7089,"24":7090,"Ġcontest":7091,"Ġreasoning":7092,"osexual":7093,"Ġyea":7094,"istry":7095,"Ġannoyed":7096,"Ġexisted":7097,"ĠBUT":7098,"ĠSeason":7099,"Ġtack":7100,"inn":7101,"Ġcarrying":7102,"Ġcreative":7103,"Ġhighlight":7104,"Ġcris":7105,"Ġive":7106,"Ġvegan":7107,".,":7108,"Ġsweat":7109,"Ġquot":7110,"ĠCurrent":7111,"Ġindependent":7112,"ĠBesides":7113,"Ġprote":7114,"Ġintelligence":7115,"Ġsauce":7116,"fect":7117,"gic":7118,"lord":7119,"Ġburning":7120,"Ġven":7121,"Ġaddict":7122,"Ġclaiming":7123,"ĠMP":7124,"nic":7125,"Ġdepressed":7126,"Ġvacc":7127,"ĠCA":7128,"ĠMur":7129,"ĠSqu":7130,"place":7131,"Ġrang":7132,"Ġdirt":7133,"ĠLondon":7134,"Ġpriority":7135,"ĠBob":7136,"Ġpathetic":7137,"oken":7138,"Ġmarry":7139,"Ġpodcast":7140,"Ġwhereas":7141,"Ġinstruct":7142,"eem":7143,"Ġhotel":7144,"Ġhockey":7145,"cont":7146,"ĠSmith":7147,"ĠBuy":7148,"Ġnail":7149,"Ġsustain":7150,"Ġholes":7151,"Ġaffected":7152,"ships":7153,"ĠDun":7154,"Ġbump":7155,"Ġlore":7156,"Ġcultural":7157,"PA":7158,"Ġunw":7159,"Ġignoring":7160,"Ġmanner":7161,"Ġtrap":7162,"wl":7163,"Ġintense":7164,"isl":7165,"evit":7166,"Ġvent":7167,"reement":7168,"Ġbegan":7169,"ĠOR":7170,"Ġbackup":7171,"enders":7172,"Ġengineering":7173,"!?":7174,"gl":7175,"ĠTeam":7176,"Ġsnap":7177,"Ġsimpl":7178,"Ġremem":7179,"Ġdownt":7180,"away":7181,"een":7182,"ĠFUCKING":7183,"zil":7184,"):":7185,"Ġadvanced":7186,"Ġpink":7187,"Ġunnecessary":7188,"oub":7189,"Ġnervous":7190,"Ġemergency":7191,"ĠTIL":7192,"ĠDev":7193,"Ġanalog":7194,"Ġshout":7195,"amsung":7196,"Ġgoddamn":7197,"ĠSK":7198,"Ġvag":7199,"Ġprivile":7200,"why":7201,"ĠNS":7202,"Ġexam":7203,"ĠHaw":7204,"ĠBull":7205,"especially":7206,"ulf":7207,"ĠGOP":7208,"Ġspring":7209,"Ġscar":7210,"Ġshopping":7211,"Ġbite":7212,"Ġlinks":7213,"Ġlifest":7214,"Ġinjured":7215,"Ġconspiracy":7216,"And":7217,"eter":7218,"osen":7219,"Ġkidding":7220,"ouch":7221,"ĠAv":7222,"Ġsoldiers":7223,"Ġblown":7224,"CE":7225,"olves":7226,"ena":7227,"Ġmemes":7228,"Ġsadly":7229,"Ġages":7230,"Ġpu":7231,"GO":7232,"Ġmakeup":7233,"Ġwra":7234,"iel":7235,"Ġwouldnt":7236,"Ġaccomplish":7237,"ucky":7238,"ĠLS":7239,"class":7240,"Ġraces":7241,"Ġcoup":7242,"Ġbusinesses":7243,"Ġlift":7244,"aco":7245,"ĠRon":7246,"ĠDestiny":7247,"ĠCongrats":7248,"ĠIce":7249,"ĠWat":7250,"Ġbehavi":7251,"Ġplants":7252,"Ġspl":7253,"Ġseed":7254,"Ġcrimes":7255,"Ġatheist":7256,"Ġelected":7257,"Ġimpressed":7258,"Ġobjective":7259,"Ġpace":7260,"umble":7261,"Ġslower":7262,"Ġ2018":7263,"Ġcentral":7264,"ĠTrans":7265,"Ġpermanent":7266,"ĠGra":7267,"Ġchemical":7268,"ĠSal":7269,"Ġ***":7270,"Ġreached":7271,"ĠTD":7272,"Ġoblig":7273,"Ġarch":7274,"cho":7275,"Ġdu":7276,"Ġpitch":7277,"ĠTwitter":7278,"cean":7279,"Ġemotions":7280,"onym":7281,"illion":7282,"ĠInc":7283,"Ġepic":7284,"Ġpurs":7285,"Ġgather":7286,"Ġrul":7287,"Ġyard":7288,"ĠEp":7289,"Ġinterpret":7290,"Ġtwitter":7291,"Ġcompens":7292,"Ġdiscovered":7293,"ĠHam":7294,"Ġshel":7295,"Ġreports":7296,"rick":7297,"Ġsna":7298,"Ġinevit":7299,"Ġquests":7300,"ography":7301,"Ġpad":7302,"ĠFind":7303,"Ġcomparing":7304,"Ġcigare":7305,"ĠBC":7306,"chers":7307,"ĠAF":7308,"Ġrevenue":7309,"Ġillness":7310,"Ġinherent":7311,"ĠSpec":7312,"Ġadapt":7313,"ĠSaturday":7314,"ĠTB":7315,"Ġconsent":7316,"Ġsummon":7317,"Ġcuz":7318,"imp":7319,"lessly":7320,"Ġstays":7321,"Ġremoving":7322,"parent":7323,"Ġusage":7324,"Ġvacation":7325,"Ġnewer":7326,"Ġlanguages":7327,"Ġclosest":7328,"ĠNote":7329,"Ġlaughed":7330,"ĠGrand":7331,"Ġhi":7332,"Ġstreaming":7333,"Ġagent":7334,"Ġaccent":7335,"Ġapplies":7336,"ĠWTF":7337,"ĠNH":7338,"Ġfancy":7339,"itors":7340,"iki":7341,"Ġcapacity":7342,"ĠKnight":7343,"Ġnaked":7344,"Ġfuckin":7345,"standing":7346,"Ġassass":7347,"Ġannounced":7348,"Ġgall":7349,"Ġapple":7350,"ffect":7351,"Ġjunk":7352,"Ġboots":7353,"ĠFair":7354,"ĠTal":7355,"ĠImp":7356,"install":7357,"ĠHarry":7358,"Ġforcing":7359,"Ġanger":7360,"Ġdelivery":7361,"Ġsymbol":7362,"ĠLa":7363,"Ġpremium":7364,"Ġsensitive":7365,"Ġmessed":7366,"haw":7367,"Ġsucceed":7368,"duct":7369,"fun":7370,"ĠHor":7371,"ĠDavid":7372,"ĠFPS":7373,"bad":7374,"ores":7375,"ĠSupp":7376,"ĠREALLY":7377,"Ġbuildings":7378,"ï¸":7379,"Ġdiamond":7380,"oul":7381,"ĠChris":7382,"Ġdrawing":7383,"Ġapplication":7384,"Ġconscious":7385,"ï¸ı":7386,"ĠBoy":7387,"Ġcontinues":7388,"Ġlesson":7389,"mat":7390,"lder":7391,"utions":7392,"Ġcens":7393,"Ġshoulder":7394,"Ġfrank":7395,"Ġtil":7396,"ĠChristians":7397,"Ġsooner":7398,"Ġappoint":7399,"roat":7400,"Ġsche":7401,"oston":7402,"weet":7403,"Ġdecre":7404,"enance":7405,"ccer":7406,"ĠMass":7407,"Ġattracted":7408,"ras":7409,"ĠQuest":7410,"Ġsupported":7411,"check":7412,"hi":7413,"Ġtweet":7414,"olen":7415,"Ġbosses":7416,"Ġsir":7417,"Ġket":7418,"illiant":7419,"ĠKen":7420,"Ġasleep":7421,"erent":7422,"Ġbelieves":7423,"Ġhorror":7424,"Ġvap":7425,"oor":7426,"Ġhunt":7427,"bits":7428,"ĠSuch":7429,"Ġcharging":7430,"ĠIF":7431,"Ġcaps":7432,"Ġdeveloper":7433,"employ":7434,"Ġconclusion":7435,"Ġteammates":7436,"osition":7437,"Ġcompon":7438,"Ġ..":7439,"ĠUSB":7440,"ĠWelcome":7441,"ĠSpanish":7442,"Ġcomputers":7443,"ĠUgh":7444,"hhhh":7445,"actions":7446,"Ġharsh":7447,"Ġpresence":7448,"Ġsi":7449,"lings":7450,"400":7451,"ijuana":7452,"Ġpussy":7453,"Ġinternal":7454,"Ġignored":7455,"Ġmentality":7456,"edi":7457,"ĠOC":7458,"Ġsharp":7459,"Ġhumanity":7460,"Ġensure":7461,"istan":7462,"law":7463,"Ġelements":7464,"Ġidentify":7465,"Ġpenalty":7466,"Ġ^^^":7467,"ĠAsk":7468,"Ġmaterials":7469,"Ġpresc":7470,"ĠMean":7471,"ials":7472,"Ġlimits":7473,"ooo":7474,"ĠBlizzard":7475,"ĠSpace":7476,"Ġlowest":7477,"Ġdreams":7478,"Ġincident":7479,"Ġclothing":7480,"aled":7481,"Ġhomes":7482,"Ġdual":7483,"Ġpreviously":7484,"ifice":7485,"ĠGun":7486,"ĠLaw":7487,"Ġwine":7488,"ĠBR":7489,"ĠAtl":7490,"TER":7491,"osing":7492,"Ġ120":7493,"Ġisland":7494,"ĠMonday":7495,"Ġnegot":7496,"Ġcandy":7497,"chan":7498,"Ġphysics":7499,"ĠNYC":7500,"ĠOct":7501,"Ġbond":7502,"Ġexcess":7503,"Ġpasses":7504,"erable":7505,"Ġclip":7506,"ĠEV":7507,"ĠMuslims":7508,"Ġsty":7509,"ãģ":7510,"ĠWall":7511,"Ġstrongly":7512,"keep":7513,"NN":7514,"gment":7515,"Ġlob":7516,"ola":7517,"ĠAMA":7518,"Ġswitching":7519,"Ġmarijuana":7520,"ront":7521,"Ġcrypt":7522,"Ġstealing":7523,"ĠFed":7524,"Ġpages":7525,"Ġgolden":7526,"Ġquant":7527,"Ġhardest":7528,"Ġhobby":7529,"omy":7530,"Ġdynam":7531,"Ġoutcome":7532,"eez":7533,"unte":7534,"Ġdps":7535,"ĠEvent":7536,"ointing":7537,"oral":7538,"Ġbell":7539,"essions":7540,"ige":7541,"Ġbom":7542,"ĠWii":7543,"Ġresponses":7544,"ĠNeed":7545,"iveness":7546,"Ġsea":7547,"âĢĶ":7548,"ĠFunny":7549,"etime":7550,"aine":7551,"Ġdetermine":7552,"rive":7553,"ĠDonald":7554,"encies":7555,"Ġconcent":7556,"van":7557,"Ġclubs":7558,"Ġseats":7559,"eared":7560,"Ġbridge":7561,"Ġroles":7562,"ĠWere":7563,"ĠLegend":7564,"ĠRoman":7565,"Ġinsist":7566,"Ġclimate":7567,"Ġinvolve":7568,"ĠSay":7569,"mate":7570,"ĠForce":7571,"ĠChamp":7572,"liv":7573,"Ġminds":7574,"Ġalleg":7575,"ĠConsidering":7576,"ĠISIS":7577,"Ġpurely":7578,"Ġfunds":7579,"car":7580,"Ġliking":7581,"Ġbleed":7582,"Ġvul":7583,"Ġmaintenance":7584,"Ġtraded":7585,"Ġcategory":7586,"nda":7587,"ĠSF":7588,"Ġfinds":7589,"Ġmemories":7590,"Ġlinked":7591,"Ġtastes":7592,"ami":7593,"aborate":7594,"Ġpropaganda":7595,"Ġrecover":7596,"ĠMaster":7597,"Ġtracks":7598,"ĠBal":7599,"world":7600,"Ġdance":7601,"ĠWoW":7602,"Ġinvestigation":7603,"Ġpractically":7604,"Ġgate":7605,"Ġassociated":7606,"Ġmood":7607,"aka":7608,"Ġ^^^^":7609,"asks":7610,"wal":7611,"ĠMich":7612,"ĠBoston":7613,"Ġfactory":7614,"Ġelectron":7615,"pay":7616,"cluding":7617,"Ġmins":7618,"Ġcurrency":7619,"Ġarena":7620,"ifies":7621,"Ġdrove":7622,"ĠHaven":7623,"Ġdelus":7624,"ĠRyan":7625,"ogs":7626,"Ġ199":7627,"ĠFallout":7628,"Ġconcerns":7629,"Ġstraw":7630,"Ġincreases":7631,"ĠWhatever":7632,"Ġhired":7633,"Ġsuggesting":7634,"Ġcontrols":7635,"Ġapologize":7636,"Ġbreakfast":7637,"Ġfunding":7638,"Ġduty":7639,"Ġartists":7640,"Ġvague":7641,"ĠSum":7642,"ĠClass":7643,"Ġfaces":7644,"Ġuncle":7645,"Ġopponents":7646,"Ġestablish":7647,"lling":7648,"Ġrefund":7649,"Ġcunt":7650,"ega":7651,"Ġrant":7652,"Ġchip":7653,"Ġrelative":7654,"ette":7655,"Ġblew":7656,"Ġbeef":7657,"Ġforms":7658,"***":7659,"ias":7660,"ĠWr":7661,"onto":7662,"Ġjoy":7663,"Ġacid":7664,"Ġmyster":7665,"Ġwelf":7666,"Ġdriven":7667,"mod":7668,"Ġbaseball":7669,"Ġwha":7670,"agues":7671,"Ġmirror":7672,"Ġnasty":7673,"Ġproced":7674,"vi":7675,"Ġinsight":7676,"Ġwelfare":7677,"Ġpilot":7678,"isters":7679,"Ġlatter":7680,"iency":7681,"Ġshotgun":7682,"ammar":7683,"Ġdozen":7684,"Ġunion":7685,"Ġcollap":7686,"pu":7687,"He":7688,"Ġcapitalism":7689,"ĠProt":7690,"vp":7691,"Ġho":7692,"Ġmotion":7693,"edit":7694,"irc":7695,"Ġcompat":7696,"Ġfacing":7697,"Ġforum":7698,"Ġadmitted":7699,"ĠAnge":7700,"Ġposter":7701,"ifications":7702,"Ġjournal":7703,"......":7704,"Ġpassword":7705,"Ġreplies":7706,"Ġwipe":7707,"hington":7708,"Ġdiscrim":7709,"Ġexplore":7710,"omin":7711,"works":7712,"ĠKinda":7713,"ĠHot":7714,"Ġaspects":7715,"ĠMcDonald":7716,"ĠJud":7717,"iform":7718,"Ġbrief":7719,"Ġrecords":7720,"Ġneat":7721,"Ġbeaten":7722,"ĠShow":7723,"Ġremaining":7724,"asant":7725,"Ġhungry":7726,"Ġhill":7727,"ĠCry":7728,"Ġknee":7729,"ĠGeorge":7730,"Ġbubble":7731,"Ġoutput":7732,"ĠDad":7733,"Ġdemocracy":7734,"nb":7735,"itute":7736,"pack":7737,"ructure":7738,"Ġactor":7739,"was":7740,"Ġshr":7741,"char":7742,"ĠEach":7743,"kings":7744,"rors":7745,"ĠMagic":7746,"Ġramp":7747,"Ġwasnt":7748,"Ġlegisl":7749,"âĢĿ.":7750,"level":7751,"Ġobtain":7752,"Ġpeop":7753,"Ġgeneric":7754,"Ġanimation":7755,"Ġpregnancy":7756,"Ġom":7757,"Ġrecommended":7758,"ĠAA":7759,"Ġchocolate":7760,"iosity":7761,"Ġol":7762,"inks":7763,"ĠRegardless":7764,"Ġyards":7765,"Ġblade":7766,"ĠMexico":7767,"Ġweigh":7768,"ĠPot":7769,"ĠMatt":7770,"Ġminimal":7771,"Ġhandled":7772,"oma":7773,"Ġanytime":7774,"Ġ95":7775,"orders":7776,"ĠCru":7777,"Ġdismiss":7778,"Ġnowadays":7779,"ĠBush":7780,"ĠSpr":7781,"Ġ36":7782,"oster":7783,"Ġpartners":7784,"ĠLI":7785,"ifi":7786,"Ġears":7787,"ĠHU":7788,"Ġengineer":7789,"Ġacadem":7790,"yal":7791,"Ġcolour":7792,"Ġrequirements":7793,"ĠUh":7794,"Ġlargely":7795,"Ġprospect":7796,"Ġblah":7797,"Ġdeserved":7798,"Ġhating":7799,"ĠTitan":7800,"cil":7801,"ĠTSM":7802,"Ġtiming":7803,"Ġwhom":7804,"Ġbiased":7805,"Ġcowork":7806,"iating":7807,"Ġtempor":7808,"pow":7809,"Ġgro":7810,"ĠDam":7811,"Ġtask":7812,"Ġdram":7813,"Ġjoined":7814,"ĠTar":7815,"eeee":7816,"somet":7817,"ĠPO":7818,"Ġprotein":7819,"popular":7820,"when":7821,"Ġanswered":7822,"Ġjung":7823,"Ġqueue":7824,"based":7825,"Ġsalty":7826,"Ġprogramming":7827,"ĠMeanwhile":7828,"Ġstarter":7829,"Ġintroduced":7830,"Ġpractical":7831,"Ġ2012":7832,"Ġappearance":7833,"ĠScott":7834,"Ġstadium":7835,"cut":7836,"Ġlanes":7837,"Ġlean":7838,"ĠHappy":7839,"belie":7840,"Ġstolen":7841,"ĠLou":7842,"Ġnar":7843,"ĠHero":7844,"ĠSadly":7845,"Ġalpha":7846,"Ġmild":7847,"Ġmanufacture":7848,"Ġdisrespect":7849,"Ġ250":7850,"Ġsecure":7851,"nels":7852,"Ġchips":7853,"vision":7854,"bron":7855,"33":7856,"Ġratio":7857,"Ġstranger":7858,"ĠMars":7859,"agram":7860,"Ġpreference":7861,"Ġfps":7862,"ĠCatholic":7863,"ĠPA":7864,"ĠRod":7865,"]]":7866,"ĠWhether":7867,"Ġcounts":7868,"Ġmisunder":7869,"Ġspare":7870,"Ġreputation":7871,"Ġweakness":7872,"Ġcampus":7873,"Ġbitter":7874,"ĠYa":7875,"raq":7876,"ĠToday":7877,"soever":7878,"Ġtends":7879,"Ġstring":7880,"ĠðŁĺĤ":7881,"Ġpoo":7882,"Ġtracking":7883,"unity":7884,"Ġinstr":7885,"ĠPri":7886,"Ġanalysis":7887,"ecraft":7888,"ĠDA":7889,"Ã¤":7890,"Ġbadass":7891,"Ġpanic":7892,"ĠAMD":7893,"ĠSouls":7894,"ĠKorean":7895,"inem":7896,"DD":7897,"atural":7898,"icked":7899,"osphere":7900,"Ġhiding":7901,"Ġimprovement":7902,"ĠMont":7903,"ĠAdam":7904,"Ġevolution":7905,"Ġconce":7906,"Ġestablished":7907,"Ġsignal":7908,"Ġlargest":7909,"Ġautomatic":7910,"Ġbattles":7911,"senal":7912,"Ġseek":7913,"Ġwasting":7914,"uls":7915,"Ġbc":7916,"Ġsavings":7917,"Ġsouls":7918,"Ġscheme":7919,"ĠGuys":7920,"Ġthor":7921,"Ġtires":7922,"ĠSamsung":7923,"izon":7924,"Ġnights":7925,"bies":7926,"Ġwhatsoever":7927,"Ġauthority":7928,"itate":7929,"Ġfactors":7930,"Ġdecides":7931,"ĠBitcoin":7932,"Ġpurple":7933,"Ġfoods":7934,"ĠFO":7935,"Ġcitizen":7936,"Ġlone":7937,"Ġbeats":7938,"quest":7939,"Ġaid":7940,"Ġbits":7941,"berg":7942,"Ġblat":7943,"ghter":7944,"ĠCy":7945,"Ġupvotes":7946,"Ġ%":7947,"Ġ2013":7948,"nov":7949,"Ġearned":7950,"Ġclaimed":7951,"rocery":7952,"making":7953,"Ġmountain":7954,"olar":7955,"ollow":7956,"Ġcomics":7957,"ENT":7958,"Ġmasturb":7959,"Ġhopes":7960,"estic":7961,"through":7962,"Ġsymptoms":7963,"orrow":7964,"Ġvib":7965,"ilst":7966,"Ġdates":7967,"ĠFeel":7968,"ĠIre":7969,"Ġencounter":7970,"Ġchoosing":7971,"ĠRick":7972,"xx":7973,"style":7974,"Ġnightmare":7975,"Ġphrase":7976,"Ġcentury":7977,"Ġmelt":7978,"Ġrocket":7979,"ĠMess":7980,"Ġgreatly":7981,"Ġcrappy":7982,"ĠSing":7983,"sea":7984,"Ġconsoles":7985,"Ġraped":7986,"ĠCongress":7987,"school":7988,"Ġbitcoin":7989,"Ġregards":7990,"agers":7991,"Ġdepos":7992,"ĠWashington":7993,"Ġnations":7994,"Ġlip":7995,"ocre":7996,"Ġcousin":7997,"ĠTW":7998,"Ġworker":7999}